unsigned char model_tflite[] = {
  0x20, 0x00, 0x00, 0x00, 0x54, 0x46, 0x4c, 0x33, 0x00, 0x00, 0x00, 0x00,
  0x14, 0x00, 0x20, 0x00, 0x1c, 0x00, 0x18, 0x00, 0x14, 0x00, 0x10, 0x00,
  0x0c, 0x00, 0x00, 0x00, 0x08, 0x00, 0x04, 0x00, 0x14, 0x00, 0x00, 0x00,
  0x1c, 0x00, 0x00, 0x00, 0x8c, 0x00, 0x00, 0x00, 0xe4, 0x00, 0x00, 0x00,
  0x00, 0x2e, 0x00, 0x00, 0x10, 0x2e, 0x00, 0x00, 0xa0, 0x66, 0x00, 0x00,
  0x03, 0x00, 0x00, 0x00, 0x01, 0x00, 0x00, 0x00, 0x04, 0x00, 0x00, 0x00,
  0x5a, 0xd1, 0xff, 0xff, 0x0c, 0x00, 0x00, 0x00, 0x1c, 0x00, 0x00, 0x00,
  0x3c, 0x00, 0x00, 0x00, 0x0f, 0x00, 0x00, 0x00, 0x73, 0x65, 0x72, 0x76,
  0x69, 0x6e, 0x67, 0x5f, 0x64, 0x65, 0x66, 0x61, 0x75, 0x6c, 0x74, 0x00,
  0x01, 0x00, 0x00, 0x00, 0x04, 0x00, 0x00, 0x00, 0x90, 0xff, 0xff, 0xff,
  0x2a, 0x00, 0x00, 0x00, 0x04, 0x00, 0x00, 0x00, 0x08, 0x00, 0x00, 0x00,
  0x6f, 0x75, 0x74, 0x70, 0x75, 0x74, 0x5f, 0x30, 0x00, 0x00, 0x00, 0x00,
  0x01, 0x00, 0x00, 0x00, 0x04, 0x00, 0x00, 0x00, 0x8a, 0xd2, 0xff, 0xff,
  0x04, 0x00, 0x00, 0x00, 0x0c, 0x00, 0x00, 0x00, 0x6b, 0x65, 0x72, 0x61,
  0x73, 0x5f, 0x74, 0x65, 0x6e, 0x73, 0x6f, 0x72, 0x00, 0x00, 0x00, 0x00,
  0x02, 0x00, 0x00, 0x00, 0x34, 0x00, 0x00, 0x00, 0x04, 0x00, 0x00, 0x00,
  0xdc, 0xff, 0xff, 0xff, 0x2d, 0x00, 0x00, 0x00, 0x04, 0x00, 0x00, 0x00,
  0x13, 0x00, 0x00, 0x00, 0x43, 0x4f, 0x4e, 0x56, 0x45, 0x52, 0x53, 0x49,
  0x4f, 0x4e, 0x5f, 0x4d, 0x45, 0x54, 0x41, 0x44, 0x41, 0x54, 0x41, 0x00,
  0x08, 0x00, 0x0c, 0x00, 0x08, 0x00, 0x04, 0x00, 0x08, 0x00, 0x00, 0x00,
  0x2c, 0x00, 0x00, 0x00, 0x04, 0x00, 0x00, 0x00, 0x13, 0x00, 0x00, 0x00,
  0x6d, 0x69, 0x6e, 0x5f, 0x72, 0x75, 0x6e, 0x74, 0x69, 0x6d, 0x65, 0x5f,
  0x76, 0x65, 0x72, 0x73, 0x69, 0x6f, 0x6e, 0x00, 0x2e, 0x00, 0x00, 0x00,
  0x18, 0x2d, 0x00, 0x00, 0x10, 0x2d, 0x00, 0x00, 0xf8, 0x2c, 0x00, 0x00,
  0xdc, 0x2c, 0x00, 0x00, 0xac, 0x2c, 0x00, 0x00, 0x1c, 0x2c, 0x00, 0x00,
  0x0c, 0x24, 0x00, 0x00, 0xfc, 0x22, 0x00, 0x00, 0xec, 0x12, 0x00, 0x00,
  0x9c, 0x12, 0x00, 0x00, 0x4c, 0x12, 0x00, 0x00, 0x3c, 0x11, 0x00, 0x00,
  0x2c, 0x09, 0x00, 0x00, 0x9c, 0x08, 0x00, 0x00, 0x6c, 0x07, 0x00, 0x00,
  0x3c, 0x07, 0x00, 0x00, 0x0c, 0x07, 0x00, 0x00, 0x7c, 0x06, 0x00, 0x00,
  0x6c, 0x04, 0x00, 0x00, 0x1c, 0x04, 0x00, 0x00, 0x7c, 0x03, 0x00, 0x00,
  0x5c, 0x03, 0x00, 0x00, 0x3c, 0x03, 0x00, 0x00, 0xec, 0x02, 0x00, 0x00,
  0x2c, 0x01, 0x00, 0x00, 0x24, 0x01, 0x00, 0x00, 0x1c, 0x01, 0x00, 0x00,
  0x14, 0x01, 0x00, 0x00, 0x0c, 0x01, 0x00, 0x00, 0x04, 0x01, 0x00, 0x00,
  0xfc, 0x00, 0x00, 0x00, 0xf4, 0x00, 0x00, 0x00, 0xec, 0x00, 0x00, 0x00,
  0xe4, 0x00, 0x00, 0x00, 0xdc, 0x00, 0x00, 0x00, 0xd4, 0x00, 0x00, 0x00,
  0xcc, 0x00, 0x00, 0x00, 0xc4, 0x00, 0x00, 0x00, 0xbc, 0x00, 0x00, 0x00,
  0xb4, 0x00, 0x00, 0x00, 0xac, 0x00, 0x00, 0x00, 0xa4, 0x00, 0x00, 0x00,
  0x9c, 0x00, 0x00, 0x00, 0x94, 0x00, 0x00, 0x00, 0x74, 0x00, 0x00, 0x00,
  0x04, 0x00, 0x00, 0x00, 0xbe, 0xd3, 0xff, 0xff, 0x04, 0x00, 0x00, 0x00,
  0x60, 0x00, 0x00, 0x00, 0x0c, 0x00, 0x00, 0x00, 0x08, 0x00, 0x0e, 0x00,
  0x08, 0x00, 0x04, 0x00, 0x08, 0x00, 0x00, 0x00, 0x10, 0x00, 0x00, 0x00,
  0x28, 0x00, 0x00, 0x00, 0x00, 0x00, 0x06, 0x00, 0x08, 0x00, 0x04, 0x00,
  0x06, 0x00, 0x00, 0x00, 0x04, 0x00, 0x00, 0x00, 0x01, 0x00, 0x00, 0x00,
  0xeb, 0x03, 0x00, 0x00, 0x0c, 0x00, 0x18, 0x00, 0x14, 0x00, 0x10, 0x00,
  0x0c, 0x00, 0x04, 0x00, 0x0c, 0x00, 0x00, 0x00, 0xb1, 0x5f, 0xe1, 0x5d,
  0x32, 0x63, 0x15, 0x13, 0x02, 0x00, 0x00, 0x00, 0x02, 0x00, 0x00, 0x00,
  0x04, 0x00, 0x00, 0x00, 0x06, 0x00, 0x00, 0x00, 0x32, 0x2e, 0x32, 0x31,
  0x2e, 0x30, 0x00, 0x00, 0x2a, 0xd4, 0xff, 0xff, 0x04, 0x00, 0x00, 0x00,
  0x10, 0x00, 0x00, 0x00, 0x31, 0x2e, 0x31, 0x34, 0x2e, 0x30, 0x00, 0x00,
  0x00, 0x00, 0x00, 0x00, 0x00, 0x00, 0x00, 0x00, 0x80, 0x9c, 0xff, 0xff,
  0x84, 0x9c, 0xff, 0xff, 0x88, 0x9c, 0xff, 0xff, 0x8c, 0x9c, 0xff, 0xff,
  0x90, 0x9c, 0xff, 0xff, 0x94, 0x9c, 0xff, 0xff, 0x98, 0x9c, 0xff, 0xff,
  0x9c, 0x9c, 0xff, 0xff, 0xa0, 0x9c, 0xff, 0xff, 0xa4, 0x9c, 0xff, 0xff,
  0xa8, 0x9c, 0xff, 0xff, 0xac, 0x9c, 0xff, 0xff, 0xb0, 0x9c, 0xff, 0xff,
  0xb4, 0x9c, 0xff, 0xff, 0xb8, 0x9c, 0xff, 0xff, 0xbc, 0x9c, 0xff, 0xff,
  0xc0, 0x9c, 0xff, 0xff, 0xc4, 0x9c, 0xff, 0xff, 0xc8, 0x9c, 0xff, 0xff,
  0x92, 0xd4, 0xff, 0xff, 0x04, 0x00, 0x00, 0x00, 0xb0, 0x01, 0x00, 0x00,
  0xc5, 0x37, 0x67, 0xbb, 0xfc, 0x3c, 0x28, 0x81, 0x67, 0x7a, 0xb7, 0x02,
  0x91, 0x48, 0x74, 0x36, 0x0c, 0xf7, 0x46, 0x23, 0x96, 0x0f, 0x00, 0x6f,
  0xc0, 0xe1, 0xff, 0xb0, 0xb3, 0x22, 0xce, 0x0d, 0x8d, 0xad, 0x0b, 0x4e,
  0x03, 0xa0, 0x48, 0xf7, 0x81, 0xbb, 0xce, 0x83, 0x21, 0x60, 0xa4, 0x6c,
  0xa2, 0xfd, 0xaa, 0xa8, 0x6d, 0x70, 0x14, 0x14, 0x8a, 0x14, 0x6c, 0x14,
  0x28, 0x52, 0x8e, 0x15, 0xde, 0xdd, 0x12, 0x2d, 0x9f, 0x88, 0x41, 0x47,
  0x97, 0x46, 0x08, 0xa0, 0xd8, 0x50, 0xa6, 0x82, 0x81, 0xde, 0xa1, 0x13,
  0x06, 0xdb, 0xc0, 0xa5, 0xdb, 0xc8, 0xcb, 0xac, 0x75, 0xcb, 0x32, 0xb9,
  0xa2, 0x63, 0xd9, 0x03, 0x1e, 0x81, 0xca, 0x1b, 0x5d, 0x1d, 0xe3, 0xbb,
  0x27, 0x08, 0x2d, 0x86, 0x22, 0x9c, 0xdf, 0xdc, 0xb1, 0x6b, 0x3c, 0x31,
  0xe6, 0x1f, 0xf0, 0x54, 0xbe, 0xce, 0xd3, 0x21, 0x5b, 0xce, 0xd0, 0xfb,
  0xc9, 0x81, 0xfe, 0x3d, 0xcb, 0x0b, 0x1b, 0xe2, 0x46, 0x22, 0x7f, 0x77,
  0xf6, 0xb3, 0x36, 0xf6, 0x3b, 0xfb, 0x5f, 0x5a, 0x58, 0xd9, 0x4b, 0xc8,
  0x0c, 0x0b, 0x1e, 0x41, 0xd9, 0xca, 0x4c, 0x7f, 0x33, 0x92, 0x2d, 0x73,
  0xad, 0x6a, 0x65, 0xce, 0xea, 0xe4, 0x24, 0xc2, 0x64, 0x35, 0x3b, 0xbb,
  0xa7, 0xac, 0x32, 0xcd, 0xf0, 0x0f, 0x1f, 0x91, 0x13, 0x20, 0x50, 0x81,
  0x9a, 0x19, 0xb0, 0xcf, 0x33, 0x0b, 0xfd, 0xf1, 0x58, 0xbf, 0x2e, 0x32,
  0x6f, 0x08, 0x85, 0xee, 0xf5, 0xdb, 0x8e, 0x33, 0xc7, 0xa7, 0xbe, 0x60,
  0x94, 0xcf, 0xdf, 0xe2, 0xc7, 0x9e, 0xfc, 0xf4, 0xb7, 0xdd, 0x15, 0x83,
  0x55, 0x8c, 0x17, 0x6e, 0xc4, 0x20, 0x73, 0xc0, 0xb0, 0xb6, 0xb8, 0x6e,
  0x81, 0xc5, 0x61, 0x0a, 0x7c, 0x10, 0xf4, 0x40, 0xa5, 0x58, 0xc8, 0x4d,
  0xb6, 0x6f, 0x86, 0x06, 0x24, 0x81, 0xf8, 0xee, 0xa4, 0x02, 0xf6, 0x5b,
  0xa3, 0xbb, 0x18, 0x81, 0xc3, 0xbe, 0xdf, 0xd7, 0x74, 0xbd, 0xfa, 0xe6,
  0x81, 0x78, 0x4b, 0x92, 0x44, 0x55, 0x97, 0x6b, 0x16, 0x97, 0xc6, 0xbe,
  0x45, 0x1f, 0x77, 0xbd, 0xd4, 0xba, 0x1a, 0x86, 0x01, 0x0e, 0xe0, 0x81,
  0xa6, 0xfe, 0xd9, 0xee, 0x3d, 0xc5, 0x28, 0x43, 0x47, 0xcf, 0x41, 0xf5,
  0x57, 0x67, 0x5f, 0x08, 0x2c, 0xec, 0xe8, 0x7b, 0x7d, 0x78, 0xea, 0x1b,
  0xec, 0x60, 0x28, 0x97, 0x0d, 0x63, 0xff, 0xd9, 0x5a, 0xf7, 0xcd, 0x3b,
  0xff, 0x75, 0x6c, 0x0d, 0x72, 0x7f, 0xcf, 0xc8, 0xf7, 0xa3, 0x6d, 0x6a,
  0xd4, 0x30, 0xf9, 0xe7, 0xf0, 0xdc, 0x81, 0xe3, 0x70, 0x38, 0x57, 0x42,
  0xb8, 0xc7, 0xc7, 0x08, 0xd0, 0xda, 0x1a, 0x16, 0xf1, 0x4a, 0x35, 0x24,
  0xe8, 0x4e, 0x72, 0x74, 0x38, 0xf5, 0xbf, 0x6a, 0xe4, 0xd0, 0x02, 0x04,
  0x93, 0x1d, 0xd2, 0x48, 0xce, 0x37, 0xeb, 0xdb, 0xa9, 0x6e, 0x94, 0x4f,
  0x00, 0xd6, 0x0d, 0x3f, 0x81, 0x49, 0xed, 0x4e, 0xa9, 0x6c, 0x33, 0x14,
  0xd6, 0xa4, 0x29, 0x93, 0x5f, 0x7f, 0x8a, 0xb5, 0xca, 0xeb, 0x43, 0x8a,
  0xbc, 0x87, 0x6e, 0x68, 0xf2, 0xaf, 0x71, 0xad, 0xd5, 0x2f, 0x7a, 0x5c,
  0x4e, 0xd6, 0xff, 0xff, 0x04, 0x00, 0x00, 0x00, 0x40, 0x00, 0x00, 0x00,
  0x62, 0x96, 0x01, 0x00, 0x9e, 0x75, 0xfd, 0xff, 0x0d, 0x30, 0xfd, 0xff,
  0x28, 0x52, 0xfc, 0xff, 0xed, 0xcf, 0xfb, 0xff, 0x25, 0x4e, 0x03, 0x00,
  0xda, 0x0b, 0xfc, 0xff, 0xdf, 0xd9, 0xfb, 0xff, 0xf4, 0xdb, 0xfd, 0xff,
  0x6a, 0xce, 0xfb, 0xff, 0xe6, 0xe6, 0x04, 0x00, 0x49, 0xac, 0x04, 0x00,
  0x20, 0x2d, 0x02, 0x00, 0x52, 0x3d, 0xfc, 0xff, 0x7f, 0x09, 0xfc, 0xff,
  0xbb, 0x3c, 0xfb, 0xff, 0x9a, 0xd6, 0xff, 0xff, 0x04, 0x00, 0x00, 0x00,
  0x10, 0x00, 0x00, 0x00, 0x6a, 0x6a, 0x6b, 0x6b, 0x69, 0x74, 0x69, 0x6a,
  0x6a, 0x69, 0x7e, 0x7f, 0x7b, 0x69, 0x6a, 0x69, 0xb6, 0xd6, 0xff, 0xff,
  0x04, 0x00, 0x00, 0x00, 0x10, 0x00, 0x00, 0x00, 0x37, 0x7d, 0x78, 0x7e,
  0x7f, 0xf3, 0x7f, 0x77, 0x7f, 0x77, 0xe9, 0x80, 0x01, 0x76, 0x7b, 0x78,
  0xd2, 0xd6, 0xff, 0xff, 0x04, 0x00, 0x00, 0x00, 0x90, 0x00, 0x00, 0x00,
  0x43, 0x86, 0x19, 0xad, 0x59, 0xea, 0x1d, 0x7b, 0x08, 0x52, 0x01, 0xc8,
  0x02, 0x8c, 0x0b, 0x0a, 0x7f, 0xca, 0x34, 0xd3, 0x29, 0x7f, 0x24, 0x17,
  0xc9, 0x73, 0xd2, 0x7f, 0xe5, 0x27, 0x2e, 0xd5, 0xe2, 0xe4, 0x62, 0xa2,
  0xaa, 0xbc, 0xd8, 0xda, 0x09, 0x31, 0xa8, 0x44, 0xbb, 0x65, 0x1e, 0x67,
  0xe0, 0x81, 0x0e, 0x3a, 0xaa, 0x21, 0x0d, 0x88, 0x24, 0x67, 0x99, 0xdd,
  0x17, 0x18, 0x24, 0xd4, 0x55, 0xcf, 0x7d, 0x81, 0x81, 0x4f, 0xee, 0xb4,
  0xe2, 0x9b, 0xf3, 0xe7, 0x62, 0x7f, 0xa0, 0x7f, 0x26, 0x77, 0x51, 0xee,
  0x49, 0x01, 0x81, 0x76, 0x2a, 0x20, 0x8e, 0xbc, 0x7f, 0xdc, 0x3d, 0x41,
  0x6c, 0x11, 0x2d, 0x79, 0x33, 0x41, 0xa3, 0x7f, 0x81, 0x4d, 0xf1, 0x36,
  0x76, 0x97, 0x98, 0x2a, 0xd2, 0x3c, 0x7f, 0x4e, 0xdd, 0x32, 0x59, 0xed,
  0x01, 0x81, 0xfd, 0x32, 0xed, 0x71, 0x5f, 0x30, 0x15, 0x83, 0x2f, 0x06,
  0x3a, 0xc7, 0x24, 0xe7, 0x8a, 0xff, 0x81, 0x53, 0x59, 0x6c, 0x81, 0xcd,
  0x6e, 0xd7, 0xff, 0xff, 0x04, 0x00, 0x00, 0x00, 0x40, 0x00, 0x00, 0x00,
  0xd2, 0xdc, 0xff, 0xff, 0x03, 0xf5, 0xff, 0xff, 0xb3, 0xf3, 0xff, 0xff,
  0xe5, 0xf1, 0xff, 0xff, 0xde, 0xf1, 0xff, 0xff, 0x87, 0x45, 0x00, 0x00,
  0x04, 0xf3, 0xff, 0xff, 0xe1, 0xee, 0xff, 0xff, 0x14, 0xf3, 0xff, 0xff,
  0xc4, 0xf4, 0xff, 0xff, 0xc8, 0x2a, 0x00, 0x00, 0x4c, 0x2d, 0x00, 0x00,
  0x19, 0x59, 0x00, 0x00, 0x28, 0xed, 0xff, 0xff, 0x2b, 0xfe, 0xff, 0xff,
  0x4e, 0xee, 0xff, 0xff, 0xba, 0xd7, 0xff, 0xff, 0x04, 0x00, 0x00, 0x00,
  0x00, 0x02, 0x00, 0x00, 0xcc, 0xbb, 0x62, 0x91, 0x0f, 0x83, 0x02, 0x6b,
  0x8d, 0xfd, 0x57, 0x5b, 0xc0, 0x81, 0xa8, 0x2b, 0x35, 0x15, 0x32, 0xaa,
  0xe4, 0x4e, 0xe3, 0xb6, 0x63, 0x59, 0xac, 0x7f, 0x4d, 0xd9, 0xd9, 0xd2,
  0x61, 0xeb, 0x99, 0x3a, 0x55, 0xc7, 0xbe, 0x2d, 0x4d, 0x35, 0x99, 0x52,
  0xe3, 0x7f, 0xcb, 0xdd, 0x8b, 0xd6, 0x78, 0x41, 0x3f, 0xac, 0x71, 0xf4,
  0xcd, 0x7f, 0x91, 0xd8, 0x8d, 0xf1, 0x82, 0x99, 0xda, 0xd3, 0x51, 0x73,
  0x7f, 0x82, 0x48, 0x61, 0x5a, 0x22, 0x1e, 0x3c, 0x89, 0xc8, 0x1a, 0x77,
  0x3a, 0x34, 0x11, 0xa4, 0x8d, 0x5c, 0x16, 0xd6, 0xff, 0xca, 0x1a, 0x6a,
  0x81, 0xc0, 0x5f, 0x9a, 0xb0, 0x67, 0x01, 0xc0, 0xb3, 0x81, 0xeb, 0x4c,
  0x94, 0x12, 0x06, 0x7a, 0x9a, 0x8f, 0xf9, 0x9e, 0x71, 0x0b, 0x87, 0xdd,
  0x9a, 0x81, 0x5f, 0xba, 0xff, 0xbc, 0x60, 0x4f, 0x51, 0xc4, 0xec, 0x30,
  0xb6, 0xb2, 0xbb, 0x3f, 0x0e, 0xa1, 0xda, 0x43, 0x51, 0x1c, 0x1e, 0x0d,
  0x61, 0x81, 0x28, 0x90, 0xe2, 0xc2, 0x68, 0xbf, 0x3e, 0x59, 0x68, 0xfb,
  0xf2, 0x87, 0x81, 0xb0, 0x94, 0x12, 0x57, 0x39, 0xd2, 0xdd, 0xb1, 0x21,
  0xf2, 0xbf, 0x39, 0xc2, 0x3f, 0x1b, 0x81, 0x38, 0xe2, 0x14, 0x5a, 0x9a,
  0x29, 0x21, 0xa9, 0xc9, 0xe7, 0xde, 0xaf, 0xf2, 0x6e, 0xe1, 0x81, 0xd1,
  0x3b, 0x37, 0xa6, 0x27, 0xfe, 0xc0, 0x98, 0x8e, 0xa5, 0x74, 0xe5, 0x3d,
  0x1e, 0x3c, 0x81, 0xfb, 0x4e, 0x6f, 0xe2, 0x6b, 0x75, 0x8c, 0x3d, 0x28,
  0xd0, 0xe2, 0xc7, 0x40, 0x17, 0x82, 0x2c, 0x09, 0xb3, 0x1f, 0x81, 0x2a,
  0xa1, 0x81, 0x43, 0x87, 0xdd, 0xe1, 0xda, 0x48, 0xbe, 0xca, 0x07, 0x1b,
  0x97, 0x9e, 0x5a, 0xc4, 0x6e, 0xde, 0xc4, 0xf5, 0x1f, 0x52, 0x58, 0x17,
  0x42, 0x47, 0x3e, 0x5e, 0x7f, 0x67, 0x08, 0xd2, 0xdb, 0x7d, 0xad, 0x92,
  0xe9, 0x51, 0xc2, 0x79, 0x48, 0x51, 0x7f, 0x9d, 0x81, 0x31, 0x99, 0xf2,
  0xc1, 0xa1, 0x2b, 0x0c, 0x67, 0xb9, 0x0e, 0x57, 0x6c, 0xa4, 0x72, 0xf5,
  0x1d, 0x7f, 0xf2, 0x16, 0x86, 0xe5, 0x68, 0x93, 0x8a, 0x9b, 0x98, 0x52,
  0xed, 0x8c, 0xb4, 0x05, 0x81, 0x64, 0xaf, 0x20, 0x33, 0x81, 0x1c, 0x99,
  0x7f, 0x02, 0x50, 0xea, 0xce, 0x76, 0xd2, 0x8c, 0x8a, 0xdd, 0xd7, 0xb2,
  0x43, 0xc3, 0x05, 0x06, 0xf4, 0x40, 0xf1, 0x49, 0x14, 0x5e, 0xf0, 0x81,
  0xac, 0x1c, 0xb6, 0x05, 0x7c, 0xef, 0x13, 0x86, 0x73, 0x1f, 0x73, 0x75,
  0xeb, 0x36, 0x4c, 0xf5, 0x7f, 0x02, 0x87, 0x3a, 0xb0, 0xf9, 0x78, 0x4f,
  0xd2, 0x61, 0xee, 0x0c, 0x1c, 0xdd, 0x81, 0x33, 0xef, 0xd7, 0xc4, 0x1c,
  0x6d, 0x02, 0xfd, 0xf1, 0x9d, 0xd5, 0xa6, 0xab, 0x6c, 0x9f, 0x1b, 0x3b,
  0x7f, 0x04, 0xef, 0x62, 0x0f, 0x21, 0xf0, 0x49, 0x3e, 0x1d, 0x09, 0xa8,
  0xec, 0x13, 0x81, 0x40, 0x36, 0x21, 0x10, 0x5f, 0x66, 0x26, 0x98, 0x00,
  0x30, 0xbc, 0xf4, 0xd3, 0x7f, 0xf5, 0x69, 0x98, 0x30, 0x06, 0x30, 0x94,
  0x0f, 0xb8, 0xee, 0xa5, 0x9d, 0xd2, 0x97, 0xed, 0xa4, 0xe9, 0xae, 0x81,
  0xab, 0xb4, 0x29, 0x4d, 0x16, 0x66, 0x98, 0xf4, 0x8e, 0x88, 0x81, 0xbf,
  0xde, 0x44, 0x4b, 0x87, 0xce, 0x22, 0xbf, 0xf9, 0x43, 0x9d, 0x0a, 0x02,
  0xb1, 0x72, 0x45, 0x1c, 0x98, 0xb2, 0x7f, 0x23, 0xc8, 0xf7, 0xdd, 0xc6,
  0x64, 0x12, 0x44, 0x91, 0x3c, 0x0f, 0x56, 0x74, 0xd0, 0x46, 0x7f, 0xef,
  0x29, 0x02, 0xa0, 0x61, 0xde, 0x38, 0x12, 0xc2, 0xd4, 0xa6, 0xee, 0x4d,
  0x5e, 0x1e, 0x48, 0x95, 0x81, 0x21, 0x06, 0x30, 0x57, 0x8d, 0x92, 0xe1,
  0xd4, 0xa0, 0x9b, 0x68, 0x4a, 0xa0, 0x57, 0x7f, 0xde, 0xa5, 0x33, 0xa2,
  0xc6, 0xd9, 0xff, 0xff, 0x04, 0x00, 0x00, 0x00, 0x80, 0x00, 0x00, 0x00,
  0xae, 0x55, 0x00, 0x00, 0x21, 0x0c, 0x00, 0x00, 0xaf, 0xef, 0xff, 0xff,
  0x67, 0xe6, 0xff, 0xff, 0x2a, 0xf1, 0xff, 0xff, 0x89, 0x29, 0x00, 0x00,
  0x87, 0xf5, 0xff, 0xff, 0x62, 0x10, 0x00, 0x00, 0x02, 0x1e, 0x00, 0x00,
  0x9a, 0xee, 0xff, 0xff, 0xa8, 0xf1, 0xff, 0xff, 0xb1, 0x50, 0x00, 0x00,
  0x6e, 0x20, 0x00, 0x00, 0x72, 0xf0, 0xff, 0xff, 0x14, 0xf4, 0xff, 0xff,
  0x9f, 0x0f, 0x00, 0x00, 0xcc, 0x30, 0x00, 0x00, 0xac, 0x17, 0x00, 0x00,
  0x28, 0xfd, 0xff, 0xff, 0x6e, 0xea, 0xff, 0xff, 0xd6, 0xf6, 0xff, 0xff,
  0xe5, 0x0d, 0x00, 0x00, 0xa6, 0x4e, 0x00, 0x00, 0x80, 0x10, 0x00, 0x00,
  0x21, 0x2f, 0x00, 0x00, 0xb5, 0x16, 0x00, 0x00, 0xbf, 0x75, 0x00, 0x00,
  0x06, 0xea, 0xff, 0xff, 0xc7, 0x9c, 0xff, 0xff, 0x29, 0x0b, 0x00, 0x00,
  0x31, 0x46, 0x00, 0x00, 0x85, 0x2c, 0x00, 0x00, 0x52, 0xda, 0xff, 0xff,
  0x04, 0x00, 0x00, 0x00, 0x20, 0x00, 0x00, 0x00, 0x70, 0x7f, 0x63, 0x63,
  0x64, 0x7a, 0x65, 0x6c, 0x69, 0x64, 0x64, 0x7a, 0x79, 0x64, 0x65, 0x51,
  0x6f, 0x75, 0x64, 0x64, 0x65, 0x58, 0x7b, 0x5b, 0x71, 0x6d, 0x7d, 0x62,
  0x5d, 0x65, 0x7d, 0x6b, 0x7e, 0xda, 0xff, 0xff, 0x04, 0x00, 0x00, 0x00,
  0x20, 0x00, 0x00, 0x00, 0x31, 0xd5, 0x7f, 0x7d, 0x7d, 0x20, 0x7f, 0x3c,
  0x36, 0x7d, 0x7d, 0x12, 0xfa, 0x7f, 0x7e, 0x80, 0x17, 0x36, 0x7e, 0x7d,
  0x7f, 0xc2, 0xeb, 0x04, 0x0b, 0x45, 0x47, 0x7d, 0x7c, 0x03, 0x61, 0x37,
  0xaa, 0xda, 0xff, 0xff, 0x04, 0x00, 0x00, 0x00, 0x20, 0x01, 0x00, 0x00,
  0x81, 0x29, 0x81, 0x35, 0x27, 0x43, 0x7f, 0x9b, 0x81, 0x3a, 0x14, 0x21,
  0x61, 0xc9, 0x67, 0xc7, 0x28, 0x33, 0x4a, 0xc6, 0xd5, 0x4c, 0xcd, 0xc8,
  0x7f, 0x1f, 0xc4, 0x19, 0x26, 0xf3, 0x86, 0x58, 0xab, 0xa8, 0x23, 0x2a,
  0xfd, 0x7f, 0x03, 0x81, 0x97, 0x6c, 0x3e, 0x7f, 0xb0, 0xdd, 0xb5, 0xec,
  0xe1, 0x81, 0x61, 0xc3, 0x4b, 0x81, 0x5c, 0x1a, 0x1a, 0x5a, 0x4f, 0x81,
  0x25, 0x87, 0x98, 0x04, 0x99, 0x9c, 0x4a, 0x6c, 0xca, 0x2d, 0x4f, 0xc8,
  0xf5, 0x4a, 0xda, 0xf4, 0x5c, 0x7f, 0xbd, 0xe7, 0x6e, 0xc3, 0x77, 0xf6,
  0x90, 0x3e, 0x64, 0x44, 0xd5, 0x63, 0x2c, 0x32, 0x99, 0x27, 0xe8, 0x6e,
  0xe8, 0xdf, 0x7f, 0x74, 0x7f, 0xd8, 0xd8, 0x01, 0xba, 0xca, 0xa6, 0x37,
  0x02, 0x17, 0x85, 0x2b, 0x72, 0x33, 0x8f, 0x99, 0xa4, 0x62, 0x2e, 0xc4,
  0xc3, 0xdf, 0x07, 0x0e, 0x3a, 0x3a, 0x29, 0x0d, 0xd1, 0x17, 0xfc, 0x81,
  0x58, 0xed, 0xce, 0x76, 0xbe, 0x4f, 0xa7, 0x3c, 0x4c, 0x98, 0x32, 0x2a,
  0x2b, 0xc9, 0xa2, 0x62, 0xc7, 0x11, 0x71, 0x27, 0x5c, 0x36, 0x0f, 0xaa,
  0xad, 0x81, 0xe8, 0x2a, 0xa9, 0xd5, 0xe2, 0x25, 0x5d, 0x5e, 0xfc, 0x17,
  0x9a, 0x22, 0x29, 0x24, 0x9f, 0x1d, 0x13, 0xbc, 0x5f, 0xda, 0x00, 0x66,
  0x99, 0x98, 0xe1, 0x17, 0x18, 0x7c, 0xfe, 0x17, 0x36, 0x9e, 0x3d, 0x39,
  0x23, 0xef, 0x26, 0xa3, 0x32, 0xc9, 0xdd, 0x1c, 0xcb, 0x25, 0x7f, 0x11,
  0x41, 0x96, 0x47, 0x7f, 0x7f, 0x74, 0x0d, 0x7f, 0xea, 0x7a, 0xfc, 0xeb,
  0x49, 0x77, 0x81, 0xd3, 0x25, 0x37, 0x46, 0x7f, 0x27, 0x60, 0xf1, 0xfe,
  0xa0, 0x6b, 0xfb, 0x20, 0xff, 0x1d, 0x3c, 0x58, 0xef, 0xda, 0xb6, 0x66,
  0xec, 0xf3, 0x7f, 0x67, 0xc9, 0xa8, 0x6c, 0x52, 0x6f, 0xee, 0x24, 0x48,
  0x81, 0x68, 0x7f, 0x66, 0x51, 0x7f, 0x9f, 0xdc, 0xfa, 0x0f, 0x90, 0x52,
  0x8e, 0x7f, 0x3f, 0x0c, 0x81, 0xb9, 0x81, 0x91, 0x07, 0x3b, 0xc6, 0x1f,
  0x7f, 0xd7, 0x7f, 0x7f, 0x3c, 0x7f, 0x05, 0x52, 0x3a, 0x16, 0xf6, 0x3b,
  0xd6, 0xdb, 0xff, 0xff, 0x04, 0x00, 0x00, 0x00, 0x80, 0x00, 0x00, 0x00,
  0x7e, 0x10, 0x00, 0x00, 0x2b, 0xfe, 0xff, 0xff, 0x98, 0xfc, 0xff, 0xff,
  0x6d, 0xfc, 0xff, 0xff, 0xba, 0xfd, 0xff, 0xff, 0xeb, 0xfe, 0xff, 0xff,
  0xf9, 0xfd, 0xff, 0xff, 0xbe, 0x04, 0x00, 0x00, 0x55, 0xfc, 0xff, 0xff,
  0x85, 0xfd, 0xff, 0xff, 0xb9, 0xfd, 0xff, 0xff, 0x80, 0xff, 0xff, 0xff,
  0xd8, 0xff, 0xff, 0xff, 0x3d, 0xfe, 0xff, 0xff, 0x41, 0xff, 0xff, 0xff,
  0x4b, 0xfe, 0xff, 0xff, 0x2f, 0xf7, 0xff, 0xff, 0xd4, 0x09, 0x00, 0x00,
  0x41, 0xff, 0xff, 0xff, 0xb9, 0xfc, 0xff, 0xff, 0x0d, 0xfe, 0xff, 0xff,
  0xf2, 0xfb, 0xff, 0xff, 0x99, 0xfa, 0xff, 0xff, 0x78, 0x0c, 0x00, 0x00,
  0x64, 0x08, 0x00, 0x00, 0xbe, 0x05, 0x00, 0x00, 0xb1, 0xf9, 0xff, 0xff,
  0x94, 0xfc, 0xff, 0xff, 0x3b, 0xf5, 0xff, 0xff, 0x7b, 0xfa, 0xff, 0xff,
  0x86, 0xfb, 0xff, 0xff, 0x50, 0xfa, 0xff, 0xff, 0x62, 0xdc, 0xff, 0xff,
  0x04, 0x00, 0x00, 0x00, 0x00, 0x08, 0x00, 0x00, 0x3d, 0xea, 0x3a, 0x47,
  0x52, 0x24, 0x6c, 0x03, 0xc3, 0x09, 0x60, 0x9c, 0x7f, 0x4d, 0xac, 0x22,
  0x7c, 0xb5, 0x50, 0x2d, 0x46, 0xfb, 0x3d, 0x50, 0xfa, 0xb2, 0x5b, 0xd1,
  0x59, 0x2c, 0x44, 0xcd, 0x5e, 0x7f, 0x5a, 0x3d, 0x06, 0x5c, 0x1d, 0x1c,
  0xd1, 0x9d, 0x5f, 0x34, 0x22, 0xb1, 0x9e, 0x55, 0x4b, 0xf2, 0xae, 0x02,
  0x52, 0x19, 0xa4, 0xbb, 0xe2, 0xca, 0x2e, 0xf9, 0xbd, 0x18, 0xef, 0x06,
  0xec, 0x03, 0x4e, 0x15, 0x38, 0x37, 0xc4, 0x9d, 0xac, 0x45, 0xe8, 0xbb,
  0xd0, 0x3c, 0xee, 0x08, 0x09, 0x32, 0xbb, 0x9c, 0xff, 0x43, 0x5c, 0x19,
  0x26, 0xb7, 0x0d, 0xb8, 0x1b, 0x3f, 0x81, 0xcd, 0x5b, 0x75, 0xcd, 0x74,
  0x07, 0x50, 0x0e, 0x81, 0x23, 0x60, 0x1c, 0x32, 0xd1, 0x66, 0x55, 0xef,
  0xf8, 0x4a, 0xb7, 0x08, 0xfe, 0x46, 0x4a, 0x5f, 0x9c, 0x0a, 0x6a, 0xb6,
  0xee, 0x9e, 0x4c, 0xb1, 0x5d, 0x50, 0xbb, 0xa1, 0x0a, 0x62, 0xb5, 0xd6,
  0xb2, 0x6d, 0xe7, 0xb2, 0x17, 0x49, 0x12, 0x64, 0xe3, 0x44, 0x30, 0xfb,
  0x43, 0xa7, 0x94, 0xa5, 0x56, 0x7f, 0xb8, 0x09, 0x98, 0x5a, 0x04, 0xf4,
  0x20, 0xb8, 0x3f, 0x5d, 0xb8, 0x41, 0x36, 0xdb, 0x3c, 0x41, 0xff, 0x71,
  0xca, 0x12, 0x42, 0xca, 0xf8, 0x7f, 0xc6, 0xd6, 0x61, 0xc8, 0x05, 0x62,
  0x23, 0x41, 0x54, 0xe5, 0x5b, 0xc7, 0x9d, 0x2f, 0x24, 0x11, 0xb0, 0x27,
  0xf5, 0x55, 0xa3, 0x33, 0x96, 0xa8, 0x75, 0x3c, 0x70, 0xcb, 0x5b, 0xbf,
  0x13, 0x81, 0xab, 0x1f, 0x43, 0x56, 0xed, 0x10, 0xe7, 0xf7, 0x62, 0x3f,
  0x17, 0x78, 0xf0, 0x71, 0xc2, 0x43, 0xe8, 0xa0, 0xb5, 0x7f, 0x05, 0xe6,
  0x0e, 0xba, 0xa7, 0x50, 0xaa, 0x52, 0x42, 0x8b, 0xa7, 0x75, 0xa4, 0x5a,
  0xb6, 0xee, 0x6d, 0x6f, 0xdd, 0xbd, 0x1e, 0x5f, 0x05, 0xc3, 0xc9, 0x47,
  0x05, 0x60, 0xed, 0x12, 0xac, 0xf6, 0x17, 0x36, 0xf6, 0x0f, 0x5c, 0xb4,
  0x64, 0x17, 0xf1, 0x4e, 0x65, 0xed, 0xe6, 0x6c, 0xb3, 0xcc, 0x4a, 0xaf,
  0xa2, 0xcf, 0x31, 0xcb, 0xfe, 0xee, 0x7f, 0x64, 0xe8, 0xa8, 0xc2, 0x04,
  0x62, 0x43, 0xe1, 0x2f, 0x81, 0x8b, 0x35, 0x13, 0xda, 0x92, 0x86, 0xdb,
  0x1c, 0xb9, 0x41, 0x19, 0x1d, 0xec, 0xca, 0x5d, 0x91, 0x17, 0xc3, 0xf3,
  0x2d, 0x1d, 0x96, 0x1b, 0x1a, 0x7f, 0xe6, 0xe6, 0x36, 0xe5, 0xf8, 0x4c,
  0x0c, 0xe0, 0x49, 0xef, 0xc9, 0x0a, 0xde, 0x62, 0x43, 0x22, 0x30, 0x0b,
  0xfa, 0x04, 0xa2, 0x11, 0xc6, 0x96, 0xe8, 0xda, 0x4d, 0x18, 0x66, 0xbe,
  0xa6, 0xb9, 0x20, 0x6a, 0x5c, 0xfa, 0x7f, 0x25, 0x0b, 0x5b, 0x10, 0x3a,
  0x36, 0x03, 0xae, 0x6e, 0x62, 0x9b, 0xe9, 0xa2, 0xa0, 0x09, 0x1c, 0x2e,
  0xec, 0x93, 0xab, 0x00, 0x52, 0x0e, 0x97, 0x95, 0x35, 0x91, 0xba, 0x96,
  0x2d, 0x11, 0xe3, 0x4b, 0xe7, 0xed, 0xd0, 0xd4, 0xf8, 0x92, 0xc2, 0x93,
  0x81, 0xdc, 0x37, 0x4b, 0x67, 0x2c, 0x30, 0xcd, 0x32, 0x9f, 0xdd, 0x06,
  0x3e, 0x2e, 0xbb, 0x0b, 0x07, 0xca, 0x08, 0xf1, 0xf6, 0x03, 0x6f, 0x2a,
  0x4e, 0x90, 0x0a, 0xf4, 0x9c, 0xca, 0xc8, 0x98, 0x0e, 0x66, 0xda, 0xe2,
  0xb9, 0x48, 0xc7, 0xc2, 0xfb, 0x28, 0xa5, 0xda, 0x74, 0x6e, 0xe0, 0x7f,
  0x7d, 0x7f, 0x69, 0x18, 0xc3, 0xe8, 0x00, 0x7d, 0x93, 0xe2, 0xcb, 0xfe,
  0x48, 0xba, 0x9b, 0x25, 0x61, 0x3d, 0xe6, 0x34, 0x0b, 0xcb, 0xe4, 0xe3,
  0x3f, 0xb4, 0xae, 0x64, 0xcd, 0x18, 0x5f, 0xa6, 0xb9, 0xa8, 0x26, 0x28,
  0xf7, 0x42, 0x61, 0x01, 0xb8, 0x2a, 0x37, 0x28, 0xf6, 0x22, 0xda, 0x28,
  0xd9, 0x1c, 0x3e, 0x10, 0xb7, 0x5b, 0xf7, 0x2e, 0xd7, 0xfe, 0x7f, 0x03,
  0x27, 0x32, 0xbd, 0x65, 0xbf, 0x2f, 0x5a, 0x3a, 0x9f, 0x7f, 0x4d, 0x03,
  0x46, 0xa0, 0x57, 0x4e, 0x48, 0x3b, 0xd4, 0x13, 0x8a, 0x02, 0x1c, 0xf4,
  0x06, 0xcc, 0x1c, 0x4d, 0xe9, 0x63, 0xd3, 0x1d, 0x47, 0xba, 0xfa, 0xe6,
  0x81, 0x1e, 0x22, 0x0b, 0xc4, 0xe4, 0x42, 0x4a, 0xce, 0x29, 0x52, 0x33,
  0xfb, 0x5d, 0x55, 0x18, 0xbe, 0xa5, 0x04, 0xb1, 0xb1, 0xa2, 0xf4, 0x39,
  0x13, 0x3d, 0xe9, 0xd8, 0xd1, 0x52, 0xe5, 0x2f, 0xb4, 0xb0, 0xb6, 0xce,
  0x0d, 0xdb, 0xd6, 0x4d, 0x42, 0x5e, 0x5c, 0x37, 0xf1, 0x4e, 0xc4, 0xec,
  0xba, 0x70, 0x5a, 0x49, 0x03, 0xe3, 0x63, 0x39, 0x00, 0xc2, 0x7f, 0xc7,
  0xd0, 0xd5, 0x07, 0x19, 0xf3, 0xb4, 0x1f, 0x31, 0xe7, 0xc2, 0xbf, 0x54,
  0x6f, 0x1c, 0xeb, 0x01, 0x0f, 0xda, 0x5a, 0x93, 0xc1, 0x10, 0x0d, 0x1e,
  0x40, 0x95, 0x7f, 0x5e, 0xbd, 0xff, 0xcf, 0xf1, 0xc6, 0x54, 0xdd, 0x65,
  0xfe, 0xc4, 0x40, 0xfa, 0x40, 0xf0, 0xc4, 0x0f, 0xe8, 0xd7, 0xae, 0x7f,
  0xb7, 0xc9, 0x09, 0x3a, 0xb2, 0xc3, 0xd3, 0x5a, 0x4a, 0x3d, 0x0a, 0x16,
  0xd9, 0xd9, 0xfa, 0x59, 0xa2, 0x24, 0x39, 0x13, 0xb8, 0xda, 0x4c, 0xe9,
  0xb2, 0xbb, 0x0c, 0xad, 0x29, 0x48, 0xe3, 0x50, 0xb6, 0xb9, 0x83, 0xa9,
  0xa3, 0xf7, 0x54, 0x9f, 0x3a, 0xe7, 0x46, 0x4b, 0xc0, 0x2f, 0x63, 0x39,
  0x13, 0x5c, 0xad, 0x81, 0x3f, 0xdf, 0xb4, 0x2f, 0xc3, 0x95, 0x39, 0x57,
  0xe3, 0xd9, 0xb9, 0xf9, 0x50, 0xcf, 0x05, 0xaf, 0x9d, 0x81, 0x0a, 0xfe,
  0x53, 0xd6, 0xe4, 0x07, 0x24, 0x9d, 0x00, 0x2b, 0x22, 0xc2, 0x13, 0x01,
  0xea, 0xbc, 0xd9, 0x09, 0xe5, 0x12, 0x9c, 0xbf, 0x0b, 0xb7, 0xa9, 0x4b,
  0xc8, 0x21, 0xeb, 0xe4, 0x42, 0x74, 0xb7, 0x98, 0xb3, 0x25, 0x78, 0x75,
  0x52, 0x19, 0xda, 0xf2, 0x2e, 0xf3, 0x81, 0x22, 0x06, 0x71, 0x52, 0xd2,
  0x01, 0x28, 0xd3, 0x1a, 0xc2, 0x3f, 0x22, 0x23, 0xc6, 0x06, 0xc5, 0x30,
  0x5c, 0x14, 0xbe, 0xaa, 0x48, 0x30, 0x01, 0x07, 0x3a, 0x1c, 0x42, 0xf8,
  0x2c, 0xb4, 0x7f, 0xbd, 0x4c, 0x16, 0x9c, 0x66, 0x2a, 0x51, 0x1d, 0xdf,
  0xfe, 0x53, 0x41, 0x81, 0x6d, 0x0f, 0xa6, 0x18, 0x73, 0x1c, 0xdf, 0xb7,
  0xf7, 0xc2, 0xb0, 0x28, 0x48, 0x31, 0x32, 0x2c, 0xb5, 0x44, 0x65, 0x07,
  0xe8, 0xdd, 0xc5, 0xce, 0xe8, 0x7f, 0x08, 0x39, 0x22, 0xc7, 0xbc, 0x9b,
  0xc7, 0x93, 0x01, 0xd9, 0xcb, 0x21, 0xb3, 0xd9, 0x63, 0xa5, 0x28, 0xa7,
  0x54, 0x5f, 0xe3, 0x51, 0xe6, 0xde, 0x2c, 0x3c, 0x20, 0x3f, 0x8f, 0x32,
  0xd5, 0x36, 0xc9, 0xbb, 0x3a, 0xd6, 0xcf, 0x3d, 0x14, 0x63, 0xc4, 0xc0,
  0x5a, 0xb5, 0xd4, 0xe3, 0x99, 0x84, 0x64, 0x5e, 0x8e, 0x81, 0x15, 0xe9,
  0x08, 0x2c, 0x0e, 0xb1, 0x1e, 0x7f, 0xc5, 0xb6, 0x06, 0x0f, 0x2e, 0xfc,
  0x46, 0xc6, 0xbf, 0xd7, 0xcb, 0x1d, 0xed, 0xcb, 0xeb, 0xcd, 0xae, 0x3e,
  0xc2, 0xde, 0x2e, 0xbe, 0x17, 0x08, 0x4d, 0x28, 0x55, 0xc9, 0x16, 0xc4,
  0x5e, 0xac, 0xa3, 0x9c, 0xa5, 0x03, 0x04, 0xde, 0xd3, 0x31, 0xf4, 0x78,
  0xab, 0x35, 0x9c, 0xc7, 0x3f, 0x6e, 0x61, 0xbc, 0x66, 0xb9, 0xf3, 0x35,
  0xf4, 0x2f, 0x23, 0x4d, 0x58, 0x60, 0x81, 0xd2, 0xa8, 0x62, 0x26, 0x35,
  0x64, 0x00, 0xc0, 0xf3, 0x07, 0x12, 0x13, 0x06, 0x26, 0x5f, 0x9d, 0x52,
  0x8c, 0x00, 0xf7, 0x6b, 0x66, 0x62, 0x7f, 0xda, 0x5e, 0xe8, 0x62, 0x42,
  0x65, 0xcd, 0x3d, 0x34, 0x2f, 0x07, 0xe2, 0xb6, 0x1d, 0x04, 0xd5, 0xbe,
  0xb0, 0xd0, 0x45, 0x5a, 0x15, 0x03, 0x13, 0xb8, 0xfc, 0x00, 0x13, 0xfc,
  0x02, 0x28, 0x0d, 0xe5, 0x22, 0x15, 0x7f, 0xd5, 0x12, 0xe3, 0x19, 0xd3,
  0x49, 0x36, 0x8c, 0x97, 0xb2, 0x50, 0xe8, 0x44, 0x7f, 0x5d, 0xbb, 0xb7,
  0xe9, 0x74, 0x72, 0xd8, 0x89, 0xf0, 0xba, 0xaf, 0xa5, 0x7b, 0x9d, 0xf2,
  0x8d, 0x0f, 0x16, 0xd8, 0xda, 0xb0, 0xef, 0x8f, 0x3e, 0x30, 0x27, 0x30,
  0xfe, 0x2e, 0xd2, 0xc4, 0xf7, 0x68, 0xa5, 0xed, 0xcb, 0x26, 0x75, 0x4b,
  0x5b, 0x24, 0xc7, 0xab, 0x0a, 0x0f, 0x81, 0xb4, 0xb1, 0x09, 0xe8, 0x28,
  0x47, 0xc3, 0x34, 0xec, 0x08, 0x2a, 0xbe, 0xe4, 0xa2, 0xdc, 0xf7, 0x87,
  0xf0, 0xf9, 0x7f, 0x4d, 0x7e, 0xb2, 0x3e, 0x2c, 0x3b, 0x02, 0x0d, 0x08,
  0x6f, 0x38, 0x94, 0xae, 0x91, 0xc7, 0xdb, 0x2a, 0xbf, 0x3a, 0x31, 0x7b,
  0x09, 0x51, 0xd8, 0x3a, 0xf5, 0x4a, 0xc7, 0xd9, 0xa9, 0xcc, 0x38, 0xb6,
  0xfe, 0xf7, 0x51, 0x55, 0x3c, 0x34, 0x12, 0xd0, 0xf7, 0xf9, 0xdd, 0xc0,
  0x81, 0x24, 0xe1, 0xc2, 0xf7, 0xfa, 0x7a, 0x06, 0x3c, 0x88, 0xda, 0x0f,
  0x3a, 0x31, 0x30, 0xf2, 0x58, 0x30, 0x22, 0x31, 0xac, 0xda, 0xf6, 0x81,
  0xbe, 0xd3, 0xf6, 0xb8, 0x1f, 0xd3, 0xdf, 0x10, 0x12, 0x05, 0x3b, 0xd9,
  0xce, 0x2d, 0x2a, 0x51, 0xab, 0xc6, 0x3c, 0xf9, 0x98, 0x30, 0xfb, 0xdf,
  0x14, 0x05, 0x03, 0x5d, 0x81, 0xb8, 0xf6, 0xe7, 0x10, 0x4d, 0x19, 0xae,
  0xe6, 0xf8, 0x42, 0x52, 0xe0, 0x63, 0xce, 0x0b, 0xa4, 0xdd, 0xb8, 0x50,
  0xbf, 0xb1, 0xbe, 0x03, 0xb0, 0x7f, 0xe0, 0xe2, 0x1c, 0x57, 0x15, 0x0e,
  0xc2, 0xcc, 0x0f, 0x38, 0xfe, 0x2f, 0x3c, 0xde, 0xcc, 0xf6, 0xee, 0x3f,
  0xca, 0x67, 0x0b, 0xdf, 0x00, 0xd9, 0xa8, 0xc9, 0x81, 0x14, 0x9c, 0x1a,
  0xc0, 0xc2, 0xd1, 0x48, 0x8b, 0x27, 0x24, 0x5a, 0x19, 0x2e, 0x9f, 0x14,
  0x9b, 0x99, 0xc4, 0x4c, 0x37, 0x5f, 0xa1, 0x22, 0x34, 0xea, 0x3d, 0x35,
  0x04, 0x65, 0x73, 0xf3, 0x2c, 0x7f, 0x31, 0xd5, 0xdf, 0x33, 0xff, 0xae,
  0x92, 0x50, 0x0e, 0x12, 0x39, 0xbc, 0x0c, 0x5e, 0x60, 0x38, 0x13, 0xea,
  0xfd, 0xf6, 0xa2, 0x9c, 0x10, 0x42, 0x3e, 0x9e, 0x01, 0x29, 0x1d, 0x46,
  0xfb, 0xfe, 0xbd, 0x14, 0x04, 0xd8, 0xc5, 0x94, 0x23, 0x8b, 0x67, 0x48,
  0xb0, 0xb3, 0x2c, 0x1e, 0xcd, 0x0d, 0x99, 0xaa, 0x3e, 0x2c, 0x03, 0x77,
  0x42, 0x7f, 0x5c, 0x61, 0xbe, 0xbc, 0xdd, 0x0c, 0x4c, 0x71, 0xeb, 0xc1,
  0x0f, 0x71, 0xde, 0x05, 0x05, 0x3a, 0xa8, 0xcc, 0x24, 0x52, 0x18, 0x00,
  0x2c, 0x9e, 0x21, 0x1b, 0xb5, 0xe3, 0xe6, 0xb4, 0xc1, 0x2e, 0x2e, 0x17,
  0x20, 0xad, 0x7f, 0xdb, 0xdb, 0x1a, 0x38, 0xf9, 0xf9, 0xc5, 0x08, 0x6a,
  0x8a, 0xfe, 0xf0, 0xef, 0x5c, 0x12, 0x0f, 0x6c, 0x12, 0x10, 0xf8, 0x19,
  0x57, 0xc9, 0xd7, 0xa7, 0x4a, 0x12, 0x03, 0xb6, 0x1b, 0xd3, 0x7f, 0xc1,
  0xbf, 0x9b, 0xb5, 0x68, 0x73, 0xdd, 0x9c, 0xcb, 0x32, 0x81, 0x37, 0xcd,
  0x10, 0xe2, 0xb9, 0x16, 0xe6, 0xcc, 0x66, 0xe8, 0x3a, 0x92, 0xc3, 0xb4,
  0xe8, 0x12, 0xd4, 0x63, 0x35, 0xd8, 0xb2, 0xfb, 0xaa, 0xcf, 0x57, 0x58,
  0xb1, 0xe4, 0xe7, 0x4c, 0x93, 0x25, 0x50, 0x08, 0xee, 0x15, 0xf2, 0xfb,
  0x4d, 0x0b, 0x98, 0x49, 0x25, 0xa4, 0x41, 0x06, 0xf0, 0xd9, 0xd7, 0x1b,
  0x5b, 0x26, 0x81, 0xaa, 0x64, 0x1a, 0x29, 0x26, 0x27, 0xd1, 0x1f, 0x1d,
  0xbf, 0xfa, 0xca, 0xae, 0x16, 0xdc, 0x50, 0x06, 0x6b, 0x14, 0xd7, 0xed,
  0xd8, 0x21, 0x81, 0xfb, 0xb0, 0xcb, 0xf9, 0xd3, 0x34, 0xd6, 0xee, 0xf5,
  0x3d, 0x04, 0x27, 0xb4, 0xba, 0xa9, 0xe4, 0x78, 0x5d, 0x4c, 0xe8, 0xcd,
  0xe1, 0xe2, 0xf8, 0x07, 0x37, 0x5b, 0xf9, 0x45, 0xb6, 0x81, 0x0c, 0x2c,
  0x25, 0xcb, 0xc3, 0xea, 0xd8, 0x6d, 0xd3, 0x15, 0x94, 0xd3, 0xea, 0xa3,
  0x1b, 0x7f, 0x65, 0x42, 0x94, 0x2b, 0xb2, 0xd5, 0x5f, 0xf7, 0xf8, 0x09,
  0xb7, 0x41, 0x2b, 0xc1, 0x25, 0x60, 0x6c, 0x4b, 0x4d, 0xd9, 0x50, 0x2f,
  0xd6, 0x41, 0xd2, 0x2b, 0x6b, 0xdd, 0x72, 0x2d, 0x5f, 0xda, 0x41, 0xe8,
  0x49, 0xb5, 0xad, 0xed, 0x55, 0xbe, 0xd7, 0x4c, 0xdf, 0xbe, 0xb1, 0x0c,
  0xde, 0x77, 0x24, 0xde, 0xe6, 0xce, 0x7f, 0xf2, 0x42, 0xe7, 0xdb, 0x2b,
  0x27, 0x7f, 0x27, 0xbe, 0x49, 0x34, 0x32, 0xf2, 0xd3, 0xdd, 0x1c, 0x73,
  0x19, 0x1b, 0x5a, 0x22, 0xbf, 0x1b, 0x5b, 0xc0, 0xc8, 0xac, 0xc1, 0xf2,
  0xb8, 0xfe, 0xed, 0x4d, 0x1b, 0x0c, 0x5f, 0x0d, 0xca, 0x1b, 0x2a, 0xf2,
  0x68, 0x31, 0xb9, 0xf4, 0x1d, 0x07, 0xda, 0x8c, 0x7f, 0x21, 0xdd, 0x71,
  0x77, 0x23, 0xd3, 0x59, 0x07, 0x2d, 0x12, 0x84, 0xb8, 0x42, 0x38, 0x2a,
  0x8b, 0xbd, 0xed, 0x00, 0x68, 0x34, 0x41, 0xb5, 0xeb, 0x40, 0xff, 0xee,
  0x41, 0x06, 0x9a, 0x81, 0xea, 0xd4, 0xae, 0x34, 0x66, 0xac, 0xb8, 0x3c,
  0xe5, 0x2b, 0x8e, 0x9c, 0xac, 0x1f, 0x47, 0xac, 0xa8, 0xf7, 0x0c, 0x35,
  0x30, 0x09, 0xb3, 0xbd, 0x47, 0x7b, 0x59, 0x34, 0xda, 0xa4, 0x62, 0x46,
  0x08, 0xee, 0x09, 0xee, 0x44, 0x08, 0xf3, 0x57, 0x0a, 0x4e, 0x11, 0x14,
  0x2a, 0x6b, 0x7f, 0x44, 0x11, 0xd3, 0x4c, 0x2f, 0x07, 0x15, 0xfa, 0xe8,
  0xd2, 0xe9, 0x0c, 0x8b, 0xdd, 0x36, 0xe8, 0xe8, 0x21, 0x2a, 0xfd, 0xe4,
  0xf6, 0x16, 0x13, 0xf2, 0xfe, 0xda, 0x7f, 0xaa, 0x56, 0x02, 0x71, 0x07,
  0xf4, 0x34, 0xe4, 0x9b, 0x74, 0xe8, 0x33, 0x52, 0xe5, 0x27, 0x5e, 0x27,
  0xcd, 0xee, 0x5b, 0xde, 0x11, 0x0e, 0xb9, 0x11, 0x53, 0x8f, 0xeb, 0xf6,
  0xa2, 0x5d, 0x21, 0x3d, 0xfa, 0x81, 0x56, 0xf1, 0x47, 0x24, 0x2d, 0x0a,
  0xa7, 0xc8, 0xd9, 0xea, 0x3d, 0x49, 0xdf, 0x3b, 0x24, 0x1b, 0x03, 0x7f,
  0x91, 0xff, 0xf9, 0x54, 0x60, 0x15, 0x2f, 0x61, 0x62, 0x47, 0xa1, 0xdc,
  0x30, 0x65, 0xc8, 0xc1, 0xad, 0xdb, 0xe0, 0x67, 0x81, 0x3e, 0x30, 0x25,
  0xba, 0x43, 0x28, 0x73, 0x43, 0xd3, 0xd8, 0xaf, 0x0e, 0x71, 0x1d, 0x32,
  0x55, 0xcd, 0xb3, 0x14, 0xec, 0x23, 0xeb, 0x34, 0x44, 0xf4, 0x74, 0x5b,
  0x20, 0x2d, 0x44, 0x53, 0x0b, 0xac, 0xf5, 0x43, 0x26, 0x50, 0x00, 0xa5,
  0xf8, 0xb5, 0xfb, 0x37, 0x81, 0x3f, 0xf2, 0x81, 0x35, 0x1f, 0xc1, 0x2e,
  0xac, 0x97, 0xf2, 0xca, 0xe6, 0xdf, 0x07, 0x35, 0xe0, 0xd6, 0xe7, 0x0a,
  0x1f, 0xc3, 0x5e, 0x5f, 0x9d, 0x3f, 0xc3, 0x01, 0xcd, 0xb6, 0x33, 0xc5,
  0xce, 0x61, 0xc0, 0xe3, 0x3a, 0xf8, 0xcd, 0x1a, 0x1a, 0xd6, 0x12, 0x42,
  0x94, 0xf9, 0xb1, 0xa6, 0x3f, 0x97, 0x93, 0x7f, 0x81, 0xa8, 0xc9, 0x9f,
  0xa4, 0x4f, 0x56, 0x57, 0x9f, 0xf1, 0x19, 0x14, 0x2a, 0x09, 0x4d, 0x31,
  0xc9, 0x66, 0xe4, 0x0f, 0x32, 0xc5, 0xf1, 0x5a, 0xdf, 0x5d, 0x44, 0xb4,
  0x45, 0x66, 0x12, 0x34, 0x19, 0x7f, 0xf5, 0x4f, 0xc0, 0x8e, 0x72, 0x38,
  0xa7, 0x89, 0x57, 0x10, 0xd0, 0xde, 0xe0, 0xeb, 0xf5, 0xba, 0xa2, 0x28,
  0x40, 0x11, 0x94, 0x14, 0x0d, 0x0e, 0x1d, 0xe8, 0x16, 0x40, 0x76, 0x15,
  0x21, 0xa1, 0xb4, 0x29, 0x28, 0xda, 0x42, 0xef, 0x3d, 0x35, 0x44, 0xdd,
  0xd3, 0x2f, 0xdf, 0xc8, 0x43, 0x34, 0x23, 0x34, 0x16, 0xb1, 0x28, 0x44,
  0xc1, 0x3c, 0x81, 0x1c, 0x07, 0x1c, 0x9c, 0x0f, 0xe4, 0x3a, 0xdd, 0x43,
  0x66, 0xd4, 0xd8, 0xd3, 0x63, 0x8e, 0xa7, 0xfe, 0x7f, 0x0d, 0xee, 0xe7,
  0x74, 0x84, 0xdf, 0x0b, 0x5a, 0xee, 0x51, 0x8b, 0x6c, 0x61, 0xb6, 0x50,
  0x82, 0xd5, 0xe9, 0x3c, 0x6e, 0xe4, 0xff, 0xff, 0x04, 0x00, 0x00, 0x00,
  0x00, 0x01, 0x00, 0x00, 0x5d, 0x02, 0x00, 0x00, 0x3f, 0xf5, 0xff, 0xff,
  0x9d, 0x07, 0x00, 0x00, 0x4e, 0x18, 0x00, 0x00, 0x27, 0x11, 0x00, 0x00,
  0x1b, 0x1f, 0x00, 0x00, 0xf5, 0xe4, 0xff, 0xff, 0x41, 0x41, 0x00, 0x00,
  0x14, 0xf0, 0xff, 0xff, 0x38, 0x07, 0x00, 0x00, 0xfc, 0x27, 0x00, 0x00,
  0x3e, 0xee, 0xff, 0xff, 0x53, 0xe4, 0xff, 0xff, 0x2d, 0xf1, 0xff, 0xff,
  0x5c, 0x18, 0x00, 0x00, 0x50, 0xfa, 0xff, 0xff, 0xc5, 0xec, 0xff, 0xff,
  0x64, 0xf2, 0xff, 0xff, 0x26, 0x3b, 0x00, 0x00, 0x52, 0x30, 0x00, 0x00,
  0x4c, 0x21, 0x00, 0x00, 0xe9, 0x1b, 0x00, 0x00, 0x55, 0xde, 0xff, 0xff,
  0xc3, 0x04, 0x00, 0x00, 0xbe, 0x03, 0x00, 0x00, 0x39, 0xdd, 0xff, 0xff,
  0x5c, 0x25, 0x00, 0x00, 0xc8, 0xd8, 0xff, 0xff, 0x41, 0x23, 0x00, 0x00,
  0x4b, 0x22, 0x00, 0x00, 0xab, 0xea, 0xff, 0xff, 0x77, 0xf4, 0xff, 0xff,
  0x91, 0xe6, 0xff, 0xff, 0x21, 0x0e, 0x00, 0x00, 0x2b, 0x11, 0x00, 0x00,
  0x34, 0xf1, 0xff, 0xff, 0x1a, 0x13, 0x00, 0x00, 0xbf, 0x21, 0x00, 0x00,
  0xfe, 0x12, 0x00, 0x00, 0xc7, 0xf9, 0xff, 0xff, 0x56, 0xf5, 0xff, 0xff,
  0x9c, 0x20, 0x00, 0x00, 0xb7, 0xed, 0xff, 0xff, 0x3d, 0x11, 0x00, 0x00,
  0xb6, 0xfd, 0xff, 0xff, 0xef, 0xf3, 0xff, 0xff, 0x62, 0x22, 0x00, 0x00,
  0xfb, 0xfc, 0xff, 0xff, 0x9e, 0xf9, 0xff, 0xff, 0xb3, 0xf0, 0xff, 0xff,
  0x47, 0x15, 0x00, 0x00, 0x7f, 0xf4, 0xff, 0xff, 0x08, 0xdd, 0xff, 0xff,
  0x41, 0xfb, 0xff, 0xff, 0xe1, 0xf7, 0xff, 0xff, 0xc5, 0x2f, 0x00, 0x00,
  0x97, 0xe7, 0xff, 0xff, 0xfb, 0xe2, 0xff, 0xff, 0xb8, 0x1d, 0x00, 0x00,
  0xd2, 0x18, 0x00, 0x00, 0x5b, 0xf2, 0xff, 0xff, 0x0f, 0x1e, 0x00, 0x00,
  0x25, 0x0b, 0x00, 0x00, 0x1d, 0xe8, 0xff, 0xff, 0x7a, 0xe5, 0xff, 0xff,
  0x04, 0x00, 0x00, 0x00, 0x40, 0x00, 0x00, 0x00, 0x67, 0x4e, 0x69, 0x53,
  0x3a, 0x63, 0x68, 0x49, 0x79, 0x69, 0x54, 0x6f, 0x6e, 0x74, 0x47, 0x63,
  0x5d, 0x6a, 0x48, 0x50, 0x54, 0x6d, 0x6c, 0x47, 0x30, 0x5e, 0x56, 0x66,
  0x4e, 0x60, 0x32, 0x5f, 0x68, 0x56, 0x53, 0x7f, 0x5c, 0x44, 0x4b, 0x67,
  0x30, 0x3a, 0x7f, 0x4b, 0x75, 0x70, 0x59, 0x4b, 0x33, 0x5c, 0x5a, 0x4f,
  0x7d, 0x3c, 0x5d, 0x55, 0x45, 0x41, 0x47, 0x53, 0x59, 0x52, 0x53, 0x60,
  0xc6, 0xe5, 0xff, 0xff, 0x04, 0x00, 0x00, 0x00, 0x40, 0x00, 0x00, 0x00,
  0x50, 0x60, 0x64, 0xf0, 0x0f, 0x80, 0x70, 0xa7, 0x6d, 0x6a, 0xf5, 0x7b,
  0x7f, 0x73, 0xf8, 0x6b, 0x63, 0x6c, 0xb2, 0xd7, 0x19, 0x3f, 0x7c, 0xfb,
  0x13, 0x59, 0xec, 0x79, 0xfe, 0xb2, 0x62, 0x64, 0x7a, 0x4a, 0x5c, 0x71,
  0x14, 0xdb, 0x0c, 0x71, 0x4d, 0xc4, 0x6f, 0x29, 0x76, 0x75, 0x11, 0x4b,
  0x58, 0x6e, 0x0b, 0x61, 0x73, 0xfd, 0x65, 0xc4, 0x51, 0x65, 0x3c, 0x34,
  0x61, 0x1b, 0x23, 0x67, 0x12, 0xe6, 0xff, 0xff, 0x04, 0x00, 0x00, 0x00,
  0x00, 0x10, 0x00, 0x00, 0xca, 0xdb, 0x00, 0xec, 0xfe, 0xd8, 0x0c, 0x08,
  0x81, 0x48, 0xbd, 0x26, 0xd1, 0xcb, 0x9e, 0xac, 0x5c, 0x64, 0xb8, 0xea,
  0x35, 0x41, 0x15, 0xca, 0xb6, 0xa1, 0xda, 0xe7, 0x24, 0xd5, 0xe7, 0xe7,
  0xcb, 0x36, 0x86, 0x18, 0xd4, 0x4e, 0x48, 0x49, 0x34, 0xc0, 0x9c, 0x2c,
  0x44, 0xe0, 0x0a, 0xf1, 0xec, 0x07, 0xdb, 0xaf, 0xf4, 0xf9, 0xd5, 0xbb,
  0xa9, 0x2e, 0x16, 0x2f, 0x20, 0xa1, 0x19, 0xd4, 0xa9, 0x39, 0xec, 0xe2,
  0xca, 0x56, 0x27, 0x10, 0xc4, 0x5a, 0x1f, 0xdb, 0xd4, 0x42, 0x5e, 0x4c,
  0x59, 0x00, 0x10, 0xe4, 0xd6, 0x9b, 0xa0, 0xdf, 0x56, 0x40, 0x61, 0xc1,
  0x3c, 0x7f, 0xb7, 0xd9, 0x2b, 0x19, 0x01, 0xaa, 0x32, 0xe8, 0xef, 0x50,
  0xe8, 0x40, 0x1a, 0x1e, 0x15, 0xf6, 0xb3, 0xcf, 0x67, 0x85, 0x32, 0xe7,
  0x40, 0x54, 0x99, 0x97, 0xdb, 0xed, 0xe6, 0x9b, 0x5d, 0x02, 0xd4, 0x98,
  0xec, 0x90, 0xa0, 0xa1, 0x0f, 0x95, 0x70, 0xcc, 0x0a, 0x53, 0x4b, 0xbc,
  0x26, 0x5d, 0xe4, 0xae, 0xbb, 0xa3, 0xa2, 0xe5, 0x39, 0xdc, 0x41, 0x3a,
  0xcc, 0x21, 0xbb, 0xb1, 0xe0, 0xea, 0x72, 0xbc, 0xdf, 0xa1, 0x96, 0x94,
  0xbc, 0xda, 0x63, 0xe6, 0x84, 0x18, 0xa1, 0xe3, 0x2e, 0x59, 0xd5, 0xe2,
  0x02, 0xc9, 0x3a, 0xf4, 0x07, 0x9b, 0xbe, 0xe5, 0x62, 0xf8, 0xc5, 0x7f,
  0x4f, 0x9a, 0x1e, 0xd0, 0xc9, 0x1e, 0x47, 0x1a, 0x33, 0xb4, 0xcf, 0x32,
  0x4a, 0xaf, 0xfd, 0x1b, 0x06, 0x47, 0xe0, 0xaf, 0x3c, 0x08, 0xd4, 0xa8,
  0x2c, 0xf0, 0x20, 0x21, 0x5c, 0x68, 0xc6, 0x28, 0x56, 0x17, 0x20, 0xc4,
  0xe3, 0xc1, 0xcb, 0x33, 0xf8, 0xa4, 0x1d, 0xdb, 0x22, 0xbd, 0x7f, 0x07,
  0xc7, 0x00, 0x03, 0xbc, 0xd9, 0x4c, 0xc6, 0x62, 0xe1, 0x22, 0x06, 0xff,
  0xce, 0x06, 0x28, 0xcb, 0xb1, 0xf6, 0x8f, 0x3a, 0xb5, 0xa0, 0xe2, 0xfa,
  0xe3, 0x5b, 0x99, 0x11, 0x91, 0x3f, 0x24, 0x38, 0xb3, 0xef, 0xf4, 0x1e,
  0xcf, 0xca, 0xea, 0x61, 0xbb, 0xfd, 0x56, 0x0d, 0xf7, 0xca, 0xea, 0x04,
  0xb1, 0x0d, 0x25, 0xb2, 0xd7, 0x40, 0x18, 0xb8, 0x3a, 0x2b, 0x22, 0xc9,
  0x81, 0xec, 0x9e, 0xce, 0xca, 0xee, 0x5d, 0x54, 0xc5, 0x1f, 0xf1, 0xec,
  0x20, 0xa0, 0x48, 0x2c, 0xd2, 0xaf, 0xc4, 0x32, 0x2f, 0xf1, 0x0f, 0xd7,
  0xd6, 0xdd, 0x07, 0xeb, 0xc2, 0x11, 0x2f, 0xc7, 0x24, 0xc6, 0x44, 0xc6,
  0x27, 0xf1, 0x7f, 0x31, 0x19, 0x1c, 0xf8, 0x0f, 0xe9, 0x0e, 0x39, 0xee,
  0xd8, 0xf7, 0x5a, 0xac, 0xb8, 0xa1, 0xee, 0x43, 0x33, 0xfc, 0x99, 0xd4,
  0x4f, 0xc7, 0xc7, 0x17, 0x12, 0x5a, 0x5d, 0x30, 0xa6, 0xfa, 0x3e, 0x27,
  0x1a, 0xc9, 0xf7, 0x60, 0x04, 0xf9, 0x3c, 0x50, 0xa6, 0xa5, 0x3c, 0xbe,
  0x52, 0x0e, 0x38, 0xb6, 0xec, 0xf3, 0xd7, 0x11, 0x2f, 0xf0, 0x2d, 0xa1,
  0xf2, 0x0e, 0xb7, 0x29, 0xf8, 0xf3, 0xba, 0xc4, 0x38, 0xc1, 0x31, 0xe0,
  0x99, 0xc3, 0x13, 0x45, 0xb5, 0xdf, 0x62, 0xf2, 0xd7, 0x29, 0x53, 0x97,
  0x12, 0x4a, 0x0c, 0xb8, 0xd9, 0x56, 0x4c, 0x91, 0x9a, 0x37, 0x9c, 0x90,
  0xb0, 0xa9, 0x2a, 0x01, 0x00, 0x0d, 0x81, 0x4f, 0xe5, 0xad, 0x1f, 0xe2,
  0xf8, 0x0a, 0x19, 0x17, 0x05, 0xab, 0x30, 0xbd, 0x8a, 0xa3, 0xf1, 0xf4,
  0xe6, 0xe9, 0xf9, 0xec, 0xce, 0x54, 0x90, 0xf0, 0xcc, 0xf0, 0xe6, 0xd0,
  0x51, 0x37, 0x36, 0x38, 0xa9, 0xe3, 0x35, 0x32, 0x81, 0x13, 0x25, 0xd5,
  0xe9, 0xfb, 0xdc, 0x36, 0x01, 0x1c, 0x30, 0xee, 0x2a, 0xcb, 0x38, 0xb9,
  0x8b, 0xbd, 0xa7, 0xb9, 0xcd, 0x20, 0xd5, 0xfb, 0x2a, 0xa1, 0x33, 0xaa,
  0x08, 0xa3, 0xe4, 0xce, 0xa4, 0xcd, 0x6b, 0x48, 0x3d, 0xa8, 0x79, 0xa8,
  0xf9, 0x07, 0xc7, 0xeb, 0x0c, 0x47, 0x01, 0xec, 0x8e, 0xd6, 0xc8, 0xd0,
  0xe8, 0x40, 0xab, 0xba, 0x35, 0x31, 0xf4, 0x3b, 0x34, 0xe1, 0x2b, 0x1d,
  0xa4, 0xc7, 0xb0, 0xf8, 0x30, 0x40, 0x11, 0x05, 0x06, 0x1f, 0xd1, 0x8a,
  0x2d, 0x1d, 0xb2, 0x33, 0xa7, 0x25, 0x9f, 0xa1, 0xf1, 0x4e, 0x0c, 0xd4,
  0x47, 0x2c, 0xf4, 0xce, 0x81, 0xdc, 0x46, 0x43, 0xca, 0xc8, 0x10, 0xb5,
  0xfb, 0xde, 0xf2, 0x24, 0xd3, 0x20, 0x05, 0x37, 0xcd, 0x76, 0x18, 0x7e,
  0xd3, 0xe9, 0x9c, 0x2e, 0xc4, 0x48, 0xd8, 0x48, 0xce, 0xe8, 0xee, 0x05,
  0x5c, 0xfd, 0xb9, 0x4d, 0x43, 0x81, 0x58, 0x1b, 0x4e, 0xe0, 0x49, 0x6a,
  0x62, 0xbc, 0x10, 0x15, 0x6e, 0x18, 0xca, 0x43, 0x32, 0x70, 0x43, 0x95,
  0x99, 0x12, 0xa3, 0xb8, 0x59, 0x15, 0xb6, 0xc4, 0xf4, 0xd6, 0x0b, 0x2a,
  0x0e, 0x29, 0x13, 0x29, 0x37, 0x4a, 0x19, 0xa9, 0x83, 0xf4, 0xee, 0xd8,
  0x4f, 0xe8, 0xa7, 0xaa, 0xf0, 0xfb, 0x1a, 0x81, 0xec, 0x42, 0x3f, 0xdb,
  0x09, 0xf8, 0x31, 0x12, 0xe7, 0xe0, 0x9f, 0xc0, 0x23, 0xd7, 0x03, 0x54,
  0xb6, 0x18, 0x2a, 0x99, 0x9f, 0xfb, 0xc0, 0x00, 0x19, 0x28, 0x62, 0xf7,
  0xce, 0x2d, 0x0b, 0xf7, 0x17, 0x36, 0x5a, 0xb9, 0x00, 0x40, 0x8c, 0xb8,
  0xa1, 0x3c, 0xfb, 0x98, 0xeb, 0xed, 0x35, 0x58, 0xa7, 0xcd, 0x2e, 0xb1,
  0xb2, 0x67, 0xf4, 0xe8, 0xb0, 0x66, 0x1c, 0x32, 0xcc, 0x09, 0xed, 0x6c,
  0xac, 0xdf, 0xc7, 0xdb, 0xde, 0x5d, 0x1c, 0x82, 0x41, 0x4b, 0x6f, 0xf9,
  0x4d, 0xcc, 0x51, 0x78, 0xca, 0xb9, 0x79, 0x55, 0x0c, 0x0e, 0xbd, 0x62,
  0x48, 0x2c, 0xac, 0x17, 0xb8, 0x6e, 0xf0, 0x01, 0x1b, 0xec, 0x97, 0xfd,
  0x47, 0x4b, 0x53, 0x84, 0x81, 0x4b, 0x35, 0xd1, 0xc2, 0xa1, 0x4e, 0xde,
  0x47, 0x1f, 0xea, 0x2e, 0xd9, 0x0b, 0x00, 0x41, 0x33, 0x57, 0x9d, 0x02,
  0x9a, 0xd4, 0x29, 0xd4, 0x40, 0x0c, 0x1f, 0xbe, 0x10, 0xa7, 0xfb, 0x5d,
  0xe0, 0x06, 0x10, 0x0b, 0xe0, 0x06, 0xdb, 0x23, 0x29, 0xcd, 0x2c, 0xfb,
  0xc8, 0x1c, 0xfe, 0xbc, 0x64, 0x17, 0x16, 0xee, 0xa6, 0x0d, 0x0c, 0x81,
  0xf6, 0xb2, 0x48, 0x26, 0x41, 0x53, 0x9d, 0xda, 0x13, 0xfb, 0x57, 0x32,
  0x2d, 0xb6, 0x29, 0xcf, 0x0d, 0xb9, 0x31, 0x15, 0xce, 0x3d, 0x78, 0x3e,
  0x5f, 0x60, 0xfc, 0x96, 0x1a, 0xe9, 0x9c, 0x2b, 0x7f, 0x49, 0xd3, 0xa8,
  0xbe, 0x12, 0x66, 0xcc, 0x5e, 0x48, 0x21, 0x69, 0xf9, 0xb1, 0xe6, 0x6d,
  0x30, 0xd7, 0x26, 0x5b, 0xd4, 0x42, 0x73, 0xd0, 0x20, 0xe8, 0xb3, 0x04,
  0xf1, 0xc2, 0xa4, 0xf9, 0xb9, 0x21, 0xc1, 0x9e, 0x65, 0xd1, 0xfd, 0x8b,
  0xbb, 0x6e, 0x66, 0xa4, 0xc2, 0xce, 0x9d, 0xb1, 0xf1, 0x50, 0x7d, 0xbe,
  0x11, 0x56, 0x39, 0xfe, 0x58, 0xc6, 0xde, 0xaf, 0x15, 0x29, 0xf9, 0xfc,
  0x1b, 0xcf, 0xe8, 0x24, 0xe4, 0xeb, 0x35, 0xf0, 0x2b, 0x1d, 0x33, 0xaf,
  0x28, 0x5c, 0xd9, 0x2a, 0xc3, 0xcc, 0xa1, 0xe7, 0x39, 0x27, 0x01, 0x5e,
  0xd3, 0xd5, 0xce, 0xa0, 0x12, 0x11, 0x27, 0x07, 0x18, 0x3e, 0x10, 0x2b,
  0xad, 0xde, 0xd3, 0x12, 0x7f, 0xf6, 0x14, 0x37, 0xe3, 0x33, 0x21, 0xab,
  0x12, 0x1b, 0x9d, 0xcf, 0x2c, 0xbe, 0xbc, 0x27, 0xea, 0xf4, 0x44, 0xac,
  0x52, 0x47, 0x86, 0x28, 0xa4, 0xe8, 0xa8, 0x0b, 0xff, 0x61, 0xd9, 0x2a,
  0x02, 0x39, 0xab, 0xee, 0x5b, 0x57, 0x57, 0xb0, 0x90, 0x0d, 0x35, 0xc5,
  0x5b, 0x41, 0x44, 0xe6, 0xeb, 0x6e, 0x7f, 0x16, 0x12, 0x70, 0x07, 0xf3,
  0x59, 0x67, 0xc3, 0x06, 0xf7, 0x10, 0xf2, 0xd2, 0xa6, 0xc5, 0x1c, 0x60,
  0x16, 0x04, 0x8e, 0x38, 0xb8, 0xd4, 0x3c, 0x2a, 0x1c, 0x1b, 0x3e, 0xdc,
  0x3d, 0x05, 0xb8, 0xa5, 0x13, 0x16, 0x11, 0xbf, 0xfe, 0x43, 0x4d, 0xb0,
  0x20, 0x3a, 0xf3, 0x91, 0x0c, 0xcd, 0x19, 0xcf, 0x2a, 0xd1, 0xf5, 0xd6,
  0xee, 0xa7, 0xbd, 0xa3, 0x37, 0x32, 0xf2, 0x6e, 0xaa, 0x81, 0xa8, 0x07,
  0x11, 0x2f, 0x6b, 0x2a, 0xff, 0xc4, 0x0f, 0x51, 0x8c, 0xb0, 0x30, 0xe8,
  0x0e, 0xba, 0x29, 0x4e, 0xdb, 0x36, 0xef, 0xb9, 0xe5, 0xff, 0x16, 0x5e,
  0xf0, 0x05, 0x5c, 0x3c, 0x49, 0xa2, 0xae, 0xb6, 0x69, 0x9b, 0x6b, 0xe4,
  0xcd, 0x11, 0x06, 0x00, 0xfb, 0xcb, 0xd6, 0xd4, 0xe5, 0x1f, 0xd8, 0x81,
  0x2d, 0xe0, 0xe5, 0xf3, 0x3d, 0xd4, 0xbc, 0xfe, 0xd4, 0x14, 0x6e, 0x2a,
  0x9d, 0xff, 0x14, 0x15, 0xc4, 0xe7, 0x20, 0x63, 0xf9, 0x42, 0xcc, 0x00,
  0x2a, 0xc2, 0x4e, 0x46, 0xdd, 0xe6, 0xd2, 0x0e, 0xb0, 0xe8, 0x88, 0x85,
  0x2e, 0x1d, 0x27, 0x50, 0xfe, 0x3f, 0x5d, 0xbd, 0xfe, 0x3c, 0x12, 0x3c,
  0x46, 0xfc, 0x81, 0xbd, 0xf0, 0x09, 0xfb, 0x45, 0x54, 0xcd, 0x69, 0xd8,
  0x39, 0xf7, 0xd4, 0xe6, 0xfc, 0x33, 0x01, 0xe8, 0xe6, 0x33, 0x1c, 0x7b,
  0x03, 0xbe, 0xf8, 0x19, 0xe6, 0x6c, 0x25, 0x6c, 0x36, 0x48, 0xe1, 0x0b,
  0x22, 0xfc, 0xc6, 0xcc, 0xec, 0x34, 0xf8, 0xbe, 0xb4, 0x3d, 0xed, 0xcb,
  0xd8, 0xe1, 0xc5, 0xdb, 0xd0, 0x00, 0xc4, 0x01, 0x09, 0xce, 0x41, 0xdf,
  0xe8, 0x17, 0x3b, 0x29, 0xcb, 0xf9, 0x8b, 0x45, 0xb5, 0xde, 0x15, 0x28,
  0xf3, 0x34, 0x5f, 0x49, 0x3d, 0x3f, 0xba, 0x18, 0xc2, 0xec, 0xba, 0xe1,
  0x07, 0x2b, 0xf0, 0x0f, 0xf7, 0xb9, 0xc9, 0xe8, 0x39, 0x03, 0x06, 0x40,
  0xf7, 0x37, 0x8e, 0xb2, 0xfb, 0x2d, 0x36, 0x2a, 0x00, 0xf9, 0x9a, 0x98,
  0x98, 0xda, 0xf1, 0x0b, 0xf3, 0x01, 0x4f, 0xfe, 0xe8, 0xc2, 0x7f, 0x25,
  0xc8, 0xfc, 0xcd, 0xc1, 0xb6, 0xb7, 0x48, 0xbb, 0xae, 0x25, 0x95, 0x9b,
  0x8f, 0xc1, 0x1c, 0xd0, 0xcb, 0xca, 0xeb, 0x12, 0x03, 0x14, 0xf2, 0x1a,
  0x8a, 0x95, 0x26, 0xd3, 0xae, 0xda, 0x0f, 0xa5, 0x20, 0x1a, 0x00, 0xf3,
  0xe2, 0x2d, 0x64, 0x0a, 0xa2, 0x23, 0xb3, 0x81, 0x47, 0x07, 0xcb, 0xeb,
  0xcc, 0x0f, 0xbd, 0x33, 0xaf, 0xd9, 0xe7, 0xc0, 0xaa, 0x05, 0x30, 0x40,
  0x3d, 0xce, 0xe9, 0x27, 0x4c, 0xfd, 0x39, 0x0a, 0xc2, 0x3e, 0xd3, 0x2c,
  0xbe, 0x03, 0xcc, 0xc4, 0xa6, 0x28, 0xea, 0x41, 0x17, 0xd7, 0x09, 0xe5,
  0xd1, 0x06, 0x0f, 0xcd, 0x95, 0xb1, 0xec, 0xb0, 0xaf, 0x6f, 0x4d, 0x9f,
  0x08, 0x0e, 0x98, 0x8a, 0xbc, 0xd9, 0x0c, 0x3a, 0x24, 0xa9, 0xe6, 0xc5,
  0xae, 0x38, 0x5d, 0xd5, 0x3f, 0xb4, 0xaa, 0x21, 0x37, 0xd0, 0x3a, 0xbf,
  0xce, 0x47, 0x2a, 0xf0, 0xf2, 0x28, 0x7f, 0xbf, 0xf1, 0xee, 0x2b, 0x3f,
  0xf4, 0x8c, 0x07, 0xa3, 0x6f, 0x0c, 0x6f, 0x1a, 0xb4, 0xf4, 0x7f, 0x20,
  0x2b, 0xc1, 0xd4, 0x29, 0x17, 0x34, 0x62, 0x32, 0x50, 0x74, 0xf0, 0x1b,
  0x5d, 0xfc, 0xe0, 0xe5, 0x02, 0xdf, 0xb0, 0x5e, 0xf0, 0xb2, 0x14, 0xc4,
  0xdb, 0xf0, 0x2d, 0xdd, 0xde, 0xb5, 0x6e, 0xe0, 0x23, 0x03, 0xdc, 0xcc,
  0x23, 0xa6, 0xd6, 0xff, 0x42, 0x49, 0xd5, 0x44, 0xac, 0x3b, 0xa2, 0xb3,
  0x75, 0x6b, 0xf2, 0x2c, 0x7f, 0x06, 0x42, 0x9a, 0x15, 0x50, 0x62, 0xe9,
  0xf6, 0x1e, 0xf8, 0xc3, 0x4a, 0xc5, 0x14, 0xfd, 0x03, 0x72, 0xf7, 0xf3,
  0x66, 0xf8, 0xee, 0xaf, 0xf0, 0xe1, 0xd8, 0x37, 0x53, 0xe3, 0x43, 0x0c,
  0xbc, 0x0f, 0xa7, 0x9f, 0xce, 0x0c, 0x58, 0x3f, 0xaa, 0xbd, 0x73, 0xcf,
  0xb6, 0x3f, 0xea, 0xd2, 0x60, 0x2b, 0xbe, 0xe1, 0xee, 0x17, 0xd6, 0xb7,
  0x08, 0xec, 0xee, 0xf2, 0x2a, 0x5a, 0x09, 0x60, 0x23, 0x22, 0xe2, 0xf6,
  0x73, 0xe1, 0x45, 0x49, 0x6c, 0x25, 0x36, 0x02, 0xaf, 0xa2, 0xfc, 0xac,
  0xf6, 0x37, 0x12, 0x11, 0x35, 0xce, 0x15, 0xcc, 0x0b, 0xea, 0x15, 0x91,
  0x2b, 0xb3, 0x36, 0x19, 0x35, 0x8c, 0xe4, 0xdf, 0x5b, 0xbe, 0x50, 0x35,
  0x2a, 0xa0, 0x58, 0xac, 0xc9, 0xe7, 0x16, 0x31, 0x31, 0xbb, 0x81, 0xc2,
  0xe6, 0xc6, 0x03, 0xda, 0xbf, 0x75, 0x16, 0x1d, 0x39, 0xc8, 0x48, 0xbd,
  0xdf, 0x26, 0xee, 0x58, 0xb9, 0x78, 0x12, 0x52, 0x3d, 0xfe, 0xd9, 0x19,
  0xb6, 0xda, 0x15, 0x2b, 0x3b, 0xb9, 0xb4, 0x00, 0x1a, 0x89, 0xfd, 0xb3,
  0xe9, 0x41, 0x6c, 0x53, 0xf0, 0x9f, 0xed, 0x82, 0x10, 0x2e, 0xee, 0xfa,
  0xdd, 0x1c, 0xef, 0x9c, 0x1b, 0x01, 0x18, 0x4f, 0x45, 0x7f, 0x08, 0x2a,
  0xbe, 0xb5, 0x2c, 0x34, 0x0d, 0xd8, 0x19, 0xe0, 0xba, 0xa8, 0x68, 0xe6,
  0xd8, 0xec, 0x0b, 0xdd, 0x0b, 0xde, 0xc4, 0x6b, 0x15, 0x36, 0x30, 0xd9,
  0x21, 0x58, 0x64, 0x7f, 0x91, 0xd5, 0x3c, 0x55, 0xa8, 0x6b, 0x2c, 0x50,
  0x63, 0xc8, 0x12, 0x01, 0x7a, 0x53, 0x41, 0x53, 0xaa, 0x01, 0x2f, 0xe9,
  0x79, 0x53, 0xb1, 0x14, 0xb3, 0xc4, 0xc5, 0xfc, 0x0c, 0x2d, 0x0d, 0x15,
  0x69, 0xf8, 0x00, 0x82, 0x19, 0xc5, 0xe7, 0x78, 0x4d, 0x60, 0xd0, 0x35,
  0xa4, 0x13, 0x57, 0x18, 0xe1, 0xf7, 0xdc, 0xeb, 0xfc, 0x96, 0x0a, 0xa9,
  0xeb, 0x1b, 0x7a, 0x0e, 0x23, 0x90, 0x78, 0x2f, 0x90, 0xd8, 0xe6, 0xdb,
  0x0c, 0x52, 0xe6, 0x31, 0x59, 0x41, 0x2c, 0x12, 0x38, 0x1e, 0x91, 0xf8,
  0x22, 0x65, 0xd7, 0x77, 0xa2, 0x32, 0x9c, 0x17, 0x29, 0xc7, 0xf9, 0x0d,
  0xc1, 0xa8, 0x37, 0xde, 0x03, 0xbe, 0xc3, 0x0d, 0x2b, 0xb6, 0xbd, 0x0f,
  0x29, 0xcc, 0x81, 0xb3, 0xc5, 0x08, 0xac, 0x32, 0xba, 0x2a, 0xd8, 0xa4,
  0x65, 0xa5, 0x30, 0x7f, 0xc0, 0xfb, 0xf5, 0xf5, 0x25, 0x05, 0xb5, 0xb3,
  0x65, 0x29, 0x34, 0x02, 0x2d, 0x54, 0x2b, 0x59, 0x34, 0x03, 0x9d, 0x29,
  0xb6, 0xca, 0xfa, 0x18, 0xa4, 0xe8, 0x9a, 0xef, 0x27, 0xe1, 0xeb, 0x7a,
  0xa8, 0xf2, 0xbc, 0x3f, 0xd0, 0x29, 0xb2, 0x12, 0xe0, 0x95, 0x29, 0x93,
  0x1b, 0xd1, 0x00, 0x9d, 0xc1, 0x33, 0x6f, 0xed, 0x6d, 0xec, 0xd1, 0xdf,
  0x9e, 0xac, 0x20, 0x46, 0xd6, 0x53, 0x01, 0x00, 0x37, 0x3d, 0xce, 0xcb,
  0x46, 0xfc, 0x13, 0x2d, 0x4d, 0x65, 0xa8, 0xee, 0xc1, 0x5d, 0x15, 0xb8,
  0xf6, 0xcd, 0x2e, 0xd7, 0xaf, 0xbd, 0x0f, 0x2c, 0xba, 0xdc, 0xde, 0xaa,
  0x01, 0x21, 0xdb, 0x28, 0xc4, 0xa4, 0xcb, 0xe6, 0xed, 0xb6, 0xb9, 0x48,
  0xc5, 0xbd, 0xe6, 0x81, 0x35, 0xff, 0xe0, 0xcc, 0xb1, 0x26, 0x5f, 0xcf,
  0x12, 0xe1, 0x05, 0x08, 0x31, 0xfb, 0xe3, 0xc2, 0x27, 0x22, 0x1b, 0x2d,
  0xa5, 0x6d, 0x9a, 0x30, 0xba, 0x5f, 0x9d, 0x7f, 0xd3, 0x4a, 0xae, 0x4b,
  0xeb, 0x32, 0xf2, 0x1f, 0x23, 0xdd, 0x63, 0xf7, 0xb4, 0x98, 0xb4, 0xf1,
  0x0d, 0x29, 0x07, 0x4a, 0xac, 0x67, 0x71, 0xa6, 0xca, 0x3f, 0xec, 0xeb,
  0x20, 0x17, 0xa9, 0xde, 0xae, 0x28, 0x87, 0x3f, 0xf7, 0xeb, 0xf0, 0xa1,
  0x4b, 0x09, 0x97, 0xf6, 0x78, 0x08, 0x5e, 0x2b, 0xda, 0x05, 0x08, 0x14,
  0x04, 0x81, 0xb9, 0xa9, 0xee, 0xf1, 0x65, 0xd5, 0x28, 0x2e, 0x5c, 0xa7,
  0xa4, 0xf3, 0x21, 0xf0, 0xf4, 0x25, 0x59, 0x93, 0x5d, 0x43, 0xfd, 0xd1,
  0x5c, 0x20, 0x9c, 0xe4, 0xfa, 0xf6, 0x31, 0x39, 0x99, 0xfd, 0xc4, 0xea,
  0x5f, 0xa4, 0xed, 0x63, 0xa7, 0xda, 0x69, 0xe9, 0xb1, 0x1f, 0xfc, 0x5b,
  0xe1, 0x4d, 0xc0, 0xed, 0xd4, 0xf7, 0x8f, 0xb6, 0x2b, 0x4a, 0xb4, 0xca,
  0x6e, 0x57, 0xfe, 0xe3, 0xc5, 0xac, 0x39, 0x94, 0x7f, 0x13, 0xee, 0x2c,
  0xd8, 0xa8, 0xd2, 0x98, 0xc4, 0xce, 0xdf, 0xdb, 0x4a, 0x59, 0x50, 0x94,
  0xca, 0x08, 0xf5, 0xa9, 0x1b, 0xce, 0xd9, 0x3f, 0xf4, 0x3f, 0x1f, 0x2a,
  0xc4, 0x41, 0x25, 0x17, 0x06, 0xea, 0x0d, 0xe9, 0xc1, 0xe7, 0xb7, 0x39,
  0xd3, 0xde, 0x52, 0x28, 0x7e, 0xe8, 0x81, 0x1e, 0xb8, 0xfc, 0x20, 0xed,
  0xff, 0x66, 0xaf, 0x0d, 0x18, 0xae, 0x9a, 0x4b, 0xbf, 0x10, 0x2c, 0x3b,
  0x30, 0x6a, 0xf6, 0x66, 0xbc, 0x59, 0x30, 0xcb, 0x56, 0xd4, 0xba, 0x5e,
  0xa6, 0xc4, 0x9a, 0x2a, 0xaf, 0xe8, 0xdb, 0x4e, 0x97, 0xd1, 0x39, 0x32,
  0x12, 0x91, 0xba, 0x2e, 0x7e, 0x0a, 0xc9, 0xfe, 0x31, 0xce, 0x18, 0x1c,
  0xcf, 0x3d, 0xc8, 0xf5, 0x32, 0x89, 0xb6, 0x6c, 0x5f, 0xf6, 0x9f, 0x9a,
  0x4b, 0x4e, 0xbe, 0x03, 0x7f, 0x93, 0x7e, 0x01, 0xb8, 0x99, 0x40, 0xb1,
  0xbb, 0x16, 0x2e, 0x13, 0xcc, 0xc8, 0xad, 0xc4, 0xc0, 0x0c, 0x3d, 0xe2,
  0x3e, 0x10, 0xeb, 0x4a, 0xb7, 0x3d, 0x4c, 0x09, 0x81, 0xd3, 0xe3, 0x57,
  0x3b, 0x10, 0x33, 0xd1, 0x5a, 0xb9, 0x37, 0xd8, 0x30, 0x21, 0x44, 0xb9,
  0xff, 0xd1, 0x8a, 0xec, 0x2e, 0xca, 0x4c, 0xcd, 0xa6, 0xa2, 0x35, 0xa4,
  0x2f, 0xee, 0x28, 0x0a, 0xb4, 0x4b, 0x59, 0xe2, 0x55, 0x09, 0xee, 0x18,
  0x13, 0x4e, 0xf1, 0x3e, 0x18, 0x6f, 0xad, 0x2e, 0xc3, 0xb9, 0xb8, 0x1e,
  0x01, 0xbd, 0x97, 0x61, 0x61, 0x36, 0x28, 0x68, 0xbf, 0xda, 0xcb, 0x14,
  0x25, 0x3f, 0x29, 0xfe, 0x74, 0x5c, 0x54, 0xc2, 0x50, 0x2c, 0x2c, 0x30,
  0x7a, 0x2c, 0x12, 0x6f, 0xc8, 0x5d, 0xbf, 0x1b, 0xa6, 0xf0, 0x8f, 0x16,
  0x22, 0xc6, 0xe9, 0x89, 0xbb, 0xdc, 0xe6, 0x81, 0x1a, 0x51, 0xbe, 0x3a,
  0x6f, 0x3d, 0xfd, 0xbc, 0xbb, 0x0f, 0xe4, 0x9b, 0x09, 0x2f, 0x57, 0x78,
  0x1c, 0x54, 0xb2, 0x40, 0xbb, 0x59, 0xd5, 0x29, 0x16, 0x59, 0x0d, 0x18,
  0x21, 0x0d, 0xa0, 0xb4, 0x38, 0x3c, 0xca, 0xa7, 0x71, 0xdf, 0x13, 0x70,
  0xf7, 0x9d, 0xab, 0xc4, 0xf0, 0x59, 0xcd, 0x58, 0x2f, 0x69, 0x13, 0x0f,
  0x05, 0x00, 0x9f, 0xff, 0x4a, 0x3c, 0x54, 0x3b, 0x25, 0x9e, 0x17, 0xdc,
  0x23, 0x33, 0xb9, 0x70, 0x7f, 0x61, 0xbf, 0xca, 0xd5, 0x6b, 0x56, 0x9d,
  0x63, 0xdb, 0x60, 0xdc, 0x1b, 0x39, 0xe6, 0xf8, 0x61, 0x89, 0x7f, 0x94,
  0xa2, 0xbc, 0xa0, 0xd6, 0x2d, 0x77, 0x0f, 0xa3, 0x52, 0x58, 0xf4, 0x9f,
  0x56, 0x4c, 0xe8, 0x04, 0x3c, 0x5e, 0xb7, 0x76, 0xeb, 0x34, 0xe2, 0x04,
  0x65, 0x9d, 0x04, 0x61, 0x2f, 0xe7, 0x52, 0x28, 0xc1, 0x5d, 0x0c, 0xc9,
  0xd2, 0x2d, 0x10, 0x46, 0x8d, 0x23, 0x9d, 0xc8, 0x51, 0xc1, 0xe3, 0xe1,
  0x43, 0x22, 0xe8, 0xb4, 0x88, 0x55, 0x32, 0x00, 0x3c, 0xe9, 0x15, 0xd8,
  0xc2, 0x14, 0x7f, 0x2a, 0x3e, 0xeb, 0xc7, 0xc8, 0xdf, 0x9b, 0x9d, 0x3d,
  0xe1, 0x23, 0xb7, 0xbd, 0x02, 0x7e, 0x4d, 0x5f, 0x5c, 0x44, 0xe8, 0xc8,
  0x78, 0x43, 0x20, 0x2f, 0x0f, 0xe9, 0xe5, 0x02, 0x57, 0x3a, 0xe4, 0x1d,
  0x17, 0x89, 0x66, 0x16, 0xe0, 0x01, 0xc4, 0x24, 0xcf, 0x5b, 0x20, 0xc6,
  0x27, 0x5f, 0x4d, 0xae, 0x8c, 0xc2, 0xcc, 0x15, 0x20, 0x50, 0xe1, 0x05,
  0xff, 0xe9, 0xa6, 0x01, 0x70, 0x53, 0xf1, 0x12, 0x60, 0xaf, 0xe1, 0x7c,
  0x58, 0xde, 0xe0, 0x12, 0xbf, 0xf1, 0xe7, 0xd5, 0x61, 0x24, 0x1e, 0x3c,
  0xba, 0xad, 0x29, 0x3f, 0xf1, 0xfa, 0x3c, 0x26, 0x4d, 0xfe, 0x34, 0xe6,
  0xe9, 0xa5, 0xf8, 0xf9, 0x41, 0x59, 0x71, 0xac, 0xf5, 0x0a, 0x4d, 0xcc,
  0x26, 0xfe, 0xaf, 0xad, 0x7f, 0x2c, 0x49, 0xfc, 0x3d, 0x9a, 0xfd, 0x13,
  0xec, 0x61, 0xe2, 0xe7, 0x81, 0xf7, 0xd9, 0xbe, 0xfe, 0x9e, 0xdc, 0xbd,
  0xfa, 0x5d, 0x44, 0x5e, 0xeb, 0x39, 0x17, 0xcc, 0xf8, 0xa3, 0x26, 0x50,
  0xce, 0x38, 0xc4, 0xf0, 0x00, 0xc2, 0xe8, 0x81, 0x2e, 0x40, 0x18, 0x46,
  0xf0, 0xcc, 0xba, 0xad, 0x3c, 0xb1, 0xb6, 0x17, 0xbc, 0xf4, 0x1e, 0xd8,
  0x8b, 0x8c, 0x5b, 0xab, 0x15, 0x19, 0xee, 0xff, 0x28, 0x32, 0x13, 0xd6,
  0xec, 0xf4, 0x24, 0x25, 0xc6, 0xf7, 0xb4, 0x34, 0x32, 0x42, 0xb9, 0xe7,
  0x1c, 0xf6, 0xc8, 0x21, 0xb6, 0xe8, 0x30, 0xff, 0x06, 0xbe, 0xc5, 0xc5,
  0xfd, 0xd9, 0xcd, 0x2f, 0xb8, 0xe4, 0xd5, 0xcf, 0x2d, 0xac, 0xd2, 0xac,
  0xbc, 0xbb, 0xcc, 0x2b, 0xf5, 0x44, 0x81, 0xf9, 0x12, 0x1a, 0x0a, 0x58,
  0x25, 0xcd, 0x29, 0xe0, 0x91, 0xa7, 0x28, 0x04, 0x31, 0xd8, 0x15, 0x31,
  0xfe, 0xcb, 0x5b, 0xf5, 0x09, 0x58, 0x34, 0xd2, 0x46, 0xda, 0xd2, 0xb1,
  0x70, 0x9f, 0xe9, 0x04, 0xff, 0xbe, 0x0e, 0xd7, 0xe4, 0xf0, 0x0d, 0x1c,
  0x01, 0x3d, 0x28, 0xaf, 0x47, 0x37, 0xe9, 0x17, 0x34, 0xe5, 0xa5, 0x07,
  0x3a, 0xf8, 0xdc, 0x49, 0xea, 0xa7, 0xb9, 0xf9, 0x58, 0xe0, 0x7f, 0x44,
  0x15, 0xca, 0x0f, 0xd8, 0x42, 0xee, 0x48, 0xfb, 0x4a, 0xe8, 0xe0, 0x40,
  0xc2, 0x57, 0x0c, 0x00, 0xc8, 0xea, 0x9f, 0x32, 0xc8, 0xc3, 0x17, 0xd1,
  0x22, 0x73, 0xb9, 0xbb, 0xb1, 0xd4, 0x81, 0x23, 0xbe, 0xc9, 0x89, 0xfa,
  0x4e, 0xba, 0xba, 0xc8, 0xc8, 0xbf, 0x55, 0x44, 0x3e, 0xab, 0x68, 0xc4,
  0xd4, 0xd6, 0xca, 0xcf, 0x17, 0xd1, 0xa8, 0xa8, 0x53, 0x6e, 0x72, 0x2a,
  0x18, 0xfd, 0x34, 0x17, 0x11, 0x42, 0xbf, 0x9b, 0x02, 0xc4, 0xed, 0x24,
  0x04, 0x43, 0x39, 0x98, 0x0b, 0x34, 0xe6, 0x0c, 0x4d, 0xe6, 0x2c, 0x29,
  0x97, 0x3c, 0xe9, 0x3f, 0xc1, 0x22, 0xc2, 0x5d, 0x0b, 0xed, 0xfe, 0x17,
  0xe5, 0xe0, 0xd3, 0xc9, 0x6c, 0xc7, 0x2d, 0x50, 0x1a, 0x16, 0xf7, 0x6d,
  0xad, 0x47, 0xca, 0xc1, 0xd7, 0x7b, 0x04, 0x0f, 0xd0, 0x82, 0x1a, 0x8d,
  0x14, 0x15, 0x07, 0x0c, 0x46, 0x2f, 0xe8, 0x17, 0xf4, 0x2c, 0x3c, 0x4b,
  0xce, 0x17, 0x7f, 0xce, 0x27, 0xf8, 0x52, 0x0d, 0x44, 0xf8, 0x0f, 0xe5,
  0x52, 0x3c, 0xce, 0xa1, 0xaf, 0x6a, 0xb4, 0xc2, 0xf2, 0x26, 0x10, 0xd8,
  0xea, 0x34, 0x19, 0xf3, 0xd0, 0xad, 0xd4, 0x68, 0x4e, 0x5f, 0x0e, 0x61,
  0x4a, 0x7f, 0x48, 0x4f, 0xe8, 0xa5, 0x9e, 0x11, 0x29, 0x7d, 0xc4, 0x5e,
  0xec, 0xc4, 0xc3, 0xf4, 0x70, 0xdc, 0x5c, 0x04, 0x8c, 0x2d, 0x00, 0x44,
  0x4b, 0xc6, 0x87, 0x40, 0xe7, 0x36, 0x5a, 0xfa, 0xdb, 0xc1, 0x78, 0x94,
  0xb4, 0x46, 0xb4, 0x5b, 0x1f, 0x33, 0x42, 0x25, 0x14, 0xff, 0x4b, 0xd7,
  0x03, 0x94, 0x06, 0x1e, 0x6d, 0xfa, 0xee, 0xaf, 0x40, 0x4d, 0x6c, 0x31,
  0xc3, 0xb4, 0x9c, 0x94, 0xa3, 0x17, 0x29, 0xb9, 0xd8, 0xce, 0xe5, 0xe1,
  0xcc, 0x40, 0x22, 0x00, 0xa7, 0xf0, 0xb0, 0x50, 0x07, 0xab, 0x56, 0x0a,
  0x55, 0xb7, 0xf6, 0xd6, 0xa9, 0xdc, 0xb2, 0xf1, 0xa8, 0x46, 0x3b, 0xcd,
  0x7f, 0x69, 0x1c, 0x5b, 0xd0, 0x10, 0x23, 0xa5, 0xb1, 0x58, 0xe2, 0x09,
  0x9b, 0xc8, 0x62, 0x71, 0x34, 0x76, 0x54, 0x1d, 0x92, 0x32, 0x27, 0xd7,
  0x50, 0x0a, 0x30, 0x7f, 0x23, 0x41, 0x65, 0xc5, 0x0b, 0xfb, 0x71, 0x47,
  0x1f, 0xb1, 0xec, 0xc3, 0x6b, 0x6f, 0x01, 0xda, 0x49, 0xb6, 0xf0, 0xe4,
  0x3f, 0x5b, 0xf0, 0x65, 0x47, 0x11, 0x0c, 0xd2, 0xbb, 0xd8, 0xe2, 0xa6,
  0x08, 0x1d, 0x57, 0xba, 0xc2, 0x61, 0x2e, 0x0c, 0x34, 0x3f, 0xf1, 0x33,
  0x21, 0xeb, 0x21, 0xf7, 0x49, 0x23, 0x24, 0xbc, 0x48, 0x2a, 0xa6, 0xe1,
  0x2f, 0x41, 0xef, 0x39, 0x6b, 0x18, 0x5f, 0xbd, 0xee, 0xfb, 0xde, 0x26,
  0x4b, 0x2a, 0x6e, 0xc3, 0x3a, 0x18, 0xe9, 0xd2, 0x56, 0xcf, 0x0b, 0x32,
  0xc1, 0xfc, 0x4d, 0x7f, 0x23, 0x97, 0xf2, 0x3c, 0xf5, 0xc7, 0x74, 0xc3,
  0xaa, 0x91, 0x18, 0x26, 0xd5, 0xb5, 0xd5, 0x41, 0x21, 0xb2, 0x9d, 0x18,
  0xa0, 0x06, 0xe3, 0xae, 0x0e, 0x2a, 0xc2, 0x5c, 0x2c, 0xef, 0x43, 0xb9,
  0xda, 0xec, 0xf9, 0x0b, 0x2f, 0x15, 0x06, 0xa2, 0x1c, 0x98, 0xc9, 0x25,
  0x20, 0xe2, 0x56, 0x65, 0xf6, 0x28, 0x14, 0x35, 0x81, 0xe3, 0xa2, 0x2f,
  0x39, 0x5d, 0x58, 0xd7, 0xeb, 0xe9, 0xb0, 0x05, 0xe7, 0xd7, 0x2c, 0x09,
  0x89, 0xd9, 0xa3, 0xaa, 0xd7, 0x29, 0x0c, 0x15, 0xed, 0x57, 0xce, 0xac,
  0xd9, 0xe7, 0x7a, 0x1b, 0x38, 0x96, 0xdd, 0x2c, 0xf2, 0xbb, 0x62, 0x1f,
  0x82, 0x33, 0xfc, 0x47, 0x50, 0x43, 0x6a, 0x22, 0x0d, 0x15, 0xe1, 0x31,
  0xfe, 0x67, 0xd2, 0x7f, 0xe1, 0xf5, 0x6e, 0x26, 0x18, 0xbb, 0x03, 0x3a,
  0x10, 0x14, 0x5c, 0x1f, 0x0d, 0x68, 0xfd, 0x4d, 0xb8, 0xca, 0x93, 0xad,
  0x50, 0x43, 0x50, 0x00, 0x65, 0xbe, 0xed, 0xf4, 0xa3, 0xb4, 0x97, 0xb4,
  0x26, 0x2b, 0x59, 0xa4, 0xad, 0x63, 0x03, 0x0e, 0x42, 0x50, 0xc1, 0x67,
  0x00, 0xb2, 0xc0, 0xcb, 0xcd, 0x27, 0x53, 0xe8, 0xd6, 0x06, 0x01, 0x47,
  0xd6, 0xc8, 0x02, 0x46, 0x9b, 0xc0, 0x18, 0x04, 0xa5, 0xb6, 0x1e, 0x16,
  0xd3, 0xe9, 0x90, 0x4b, 0xb4, 0x7f, 0xd7, 0xab, 0xbb, 0xa2, 0xb6, 0xeb,
  0x38, 0x29, 0x43, 0x05, 0xa5, 0x2c, 0xf4, 0x2d, 0xc3, 0x06, 0x24, 0x56,
  0x14, 0x4c, 0xc7, 0x52, 0x6f, 0xd9, 0xa2, 0xae, 0xfb, 0x60, 0x62, 0x5b,
  0xba, 0x56, 0xc8, 0xf8, 0x39, 0x31, 0x17, 0x9f, 0xb2, 0xfa, 0x05, 0xdf,
  0xfc, 0xf8, 0x08, 0x0e, 0x3b, 0x28, 0xaa, 0xd0, 0xe1, 0xb5, 0xcf, 0x45,
  0x36, 0x42, 0xff, 0xf3, 0x10, 0x07, 0x02, 0x04, 0x9d, 0xb1, 0xcf, 0xaa,
  0x3b, 0x4b, 0x46, 0xf9, 0x38, 0xc7, 0xab, 0x81, 0x1e, 0xc5, 0xcc, 0xc4,
  0x40, 0x4c, 0x83, 0x25, 0xdc, 0x1a, 0xf8, 0xb9, 0xf8, 0xd3, 0x43, 0x0e,
  0x27, 0xd6, 0x5a, 0x4a, 0x1e, 0x36, 0x4a, 0xb1, 0xf4, 0xfb, 0xda, 0x4a,
  0x5d, 0xd5, 0xaf, 0x54, 0xe0, 0x10, 0x09, 0x9d, 0xe1, 0x33, 0xf8, 0x1d,
  0xc0, 0xbf, 0xfc, 0xa0, 0x2f, 0xce, 0xd8, 0xa3, 0x02, 0x60, 0x45, 0xcf,
  0x52, 0x00, 0x2c, 0x0a, 0x10, 0xa9, 0xaf, 0xe2, 0x45, 0x41, 0x16, 0x71,
  0xfb, 0xac, 0xca, 0xb3, 0x48, 0xb7, 0x05, 0xc7, 0xa9, 0x9a, 0xc9, 0x19,
  0xc8, 0xd9, 0x65, 0x25, 0x3b, 0x25, 0x84, 0x32, 0xa2, 0x4a, 0xd9, 0xaa,
  0x02, 0xbf, 0x81, 0x26, 0x49, 0xad, 0xcf, 0x2f, 0x39, 0x23, 0x31, 0x4a,
  0x93, 0x59, 0x81, 0x2a, 0x1d, 0xf1, 0x07, 0x7f, 0x39, 0x29, 0x70, 0x1c,
  0x2a, 0x7a, 0x5f, 0x6d, 0x50, 0xd4, 0xd0, 0xc2, 0xe0, 0x20, 0x60, 0xd4,
  0x0d, 0xc0, 0x3a, 0xd1, 0x2e, 0xc4, 0x6f, 0x64, 0x17, 0x47, 0x0d, 0x98,
  0xb2, 0xf4, 0xca, 0xc1, 0x45, 0x18, 0xe7, 0x37, 0x03, 0xd6, 0x08, 0xa5,
  0xa5, 0x95, 0x03, 0x23, 0xca, 0xb9, 0x5c, 0x45, 0x68, 0x5a, 0x33, 0xb8,
  0xc8, 0x17, 0x45, 0xaa, 0xd3, 0xf9, 0x61, 0x30, 0x32, 0xad, 0x0f, 0xae,
  0x31, 0xa2, 0x22, 0x15, 0x4e, 0x13, 0xd7, 0x3f, 0xbc, 0xc1, 0x0a, 0xc6,
  0x45, 0x04, 0xd8, 0xca, 0xc9, 0x36, 0xd2, 0x46, 0xb9, 0x32, 0xd5, 0x26,
  0x39, 0xae, 0x7f, 0xd7, 0xa6, 0x05, 0x17, 0x2a, 0xde, 0xca, 0x45, 0x52,
  0x41, 0x28, 0xcd, 0x07, 0x07, 0x19, 0xa0, 0x2a, 0xa1, 0x00, 0xf9, 0x29,
  0x0b, 0x87, 0x34, 0x1c, 0x3d, 0x34, 0xac, 0x4f, 0xca, 0xe3, 0x81, 0xaa,
  0x22, 0xf3, 0xc2, 0x1f, 0xbc, 0x53, 0x1a, 0x21, 0x9c, 0x9b, 0xdc, 0xb7,
  0xc0, 0xbf, 0x24, 0x2e, 0x1b, 0x5c, 0xfd, 0xe4, 0x3b, 0x32, 0xdd, 0xe0,
  0xca, 0x3a, 0xd2, 0x49, 0xd6, 0xc0, 0xd0, 0x84, 0xc0, 0xbb, 0x16, 0x0f,
  0x2d, 0x38, 0xdf, 0xd2, 0xcd, 0xda, 0xdc, 0xd7, 0xff, 0xfe, 0x3f, 0x72,
  0xbf, 0xa1, 0x02, 0xd9, 0xda, 0xd3, 0x1f, 0xe8, 0xd7, 0x16, 0xd3, 0x11,
  0xd5, 0x59, 0xb0, 0xc4, 0xb4, 0x25, 0xc0, 0xd8, 0xe5, 0x2d, 0xef, 0xe4,
  0x13, 0x02, 0x40, 0xf1, 0x1a, 0x4c, 0x7a, 0x10, 0xf3, 0x2b, 0xde, 0x44,
  0xd7, 0xbc, 0xd0, 0xf6, 0x57, 0x32, 0x7f, 0xf0, 0x52, 0x0c, 0xc7, 0x2c,
  0xf3, 0xbe, 0xce, 0xf6, 0x5e, 0xcf, 0xa7, 0x2a, 0xcc, 0xc6, 0xe9, 0xa6,
  0x54, 0x38, 0xdb, 0x63, 0x40, 0xb8, 0x5f, 0x3c, 0x58, 0x71, 0x13, 0x3f,
  0x3d, 0x00, 0xf0, 0xae, 0x41, 0x08, 0x2a, 0xb7, 0x63, 0x3c, 0x41, 0x38,
  0x93, 0xa3, 0xf0, 0x93, 0x24, 0x07, 0x5e, 0x0b, 0x42, 0x45, 0xce, 0x18,
  0x58, 0xe0, 0x18, 0xa5, 0xe6, 0x25, 0x30, 0x69, 0xfd, 0xa6, 0xcf, 0x8b,
  0x02, 0x44, 0x7f, 0xf2, 0xa6, 0xe1, 0xf8, 0xa2, 0x2f, 0x39, 0x01, 0xc7,
  0x3e, 0xb3, 0x99, 0x30, 0x03, 0xb6, 0xe0, 0xac, 0xff, 0x37, 0x8a, 0xe7,
  0xb6, 0x4c, 0x23, 0x0c, 0x50, 0xe2, 0x43, 0x09, 0xa7, 0x75, 0xb9, 0xa9,
  0xfb, 0xe2, 0xb8, 0x7f, 0xf9, 0x63, 0xb0, 0x34, 0x6a, 0xbb, 0xe8, 0xda,
  0x1e, 0x0b, 0x58, 0x2b, 0x03, 0xe2, 0x10, 0xfc, 0x2d, 0x9f, 0x32, 0x9f,
  0x0c, 0x2c, 0x78, 0x3c, 0xc2, 0x2e, 0xeb, 0xc0, 0x05, 0xea, 0x8b, 0xcc,
  0x3d, 0x38, 0x0c, 0x29, 0xa7, 0x3e, 0x39, 0x9a, 0xfd, 0x31, 0x36, 0x5c,
  0x2d, 0x00, 0xff, 0xb9, 0x16, 0xed, 0x07, 0x1b, 0xcc, 0x5d, 0x18, 0x4c,
  0xb1, 0x35, 0xdc, 0x62, 0x75, 0x5f, 0x16, 0x2b, 0xe9, 0xfc, 0x19, 0xf2,
  0xd3, 0xd4, 0xea, 0x27, 0x04, 0xf1, 0x4d, 0xd7, 0x09, 0x52, 0x1a, 0x48,
  0x3a, 0xc5, 0x02, 0xcf, 0x7f, 0x31, 0xb3, 0xf6, 0xcd, 0x5e, 0x39, 0xfe,
  0x1a, 0x9c, 0xb2, 0x37, 0x0c, 0x52, 0xff, 0x28, 0xf7, 0xf5, 0x4e, 0xed,
  0xe4, 0xee, 0x3e, 0xc0, 0x45, 0x0c, 0x41, 0x0f, 0xf4, 0x53, 0x32, 0x53,
  0x16, 0x44, 0xaf, 0x13, 0x01, 0x57, 0xc1, 0xe1, 0x6a, 0x16, 0x3d, 0x61,
  0x31, 0x07, 0x32, 0x74, 0x2b, 0x69, 0x66, 0x55, 0x29, 0x81, 0xed, 0xb3,
  0x01, 0x69, 0xe7, 0x72, 0x0a, 0x2d, 0x9f, 0xe8, 0xde, 0x1e, 0x45, 0x48,
  0x18, 0x6c, 0xdc, 0x54, 0xad, 0xf3, 0x97, 0x02, 0x03, 0xbe, 0x6c, 0x3b,
  0xdd, 0x26, 0x67, 0xfc, 0x60, 0xab, 0x30, 0x3c, 0xea, 0x3f, 0x0e, 0xa2,
  0xcc, 0x11, 0x09, 0xc0, 0x49, 0x7b, 0x2d, 0x1d, 0x3c, 0xfb, 0x81, 0xfa,
  0x08, 0x35, 0x26, 0x1e, 0x07, 0xfb, 0x5d, 0x40, 0x4b, 0x29, 0xce, 0x4c,
  0x06, 0xe3, 0x46, 0xec, 0x3c, 0x11, 0xbc, 0x1a, 0xf4, 0xa4, 0x10, 0x1d,
  0x3a, 0xf0, 0x46, 0xfe, 0xc5, 0x1b, 0x03, 0x12, 0x9e, 0xcd, 0x10, 0x21,
  0x19, 0xc4, 0xbd, 0x3a, 0xbd, 0x18, 0x60, 0xd9, 0xca, 0x3b, 0x4a, 0x1c,
  0x04, 0x06, 0x67, 0x4a, 0x3e, 0x1a, 0x06, 0xce, 0x40, 0x3a, 0xc6, 0x2e,
  0xd1, 0x2f, 0xcb, 0xf1, 0xba, 0x48, 0xf1, 0xd3, 0x9d, 0x28, 0x12, 0x45,
  0x47, 0x5e, 0xcc, 0x57, 0xee, 0xa0, 0xa0, 0xc6, 0x52, 0x77, 0x5d, 0xb6,
  0x66, 0xc0, 0xff, 0x9a, 0xda, 0x44, 0x18, 0xb8, 0xb4, 0x27, 0x81, 0xbd,
  0x15, 0xa7, 0x0c, 0x25, 0x68, 0xd1, 0xa5, 0xaf, 0x39, 0xe2, 0x15, 0xcb,
  0xea, 0xbc, 0x1d, 0x37, 0xe7, 0xb0, 0x11, 0xb9, 0x1e, 0xf6, 0xff, 0xff,
  0x04, 0x00, 0x00, 0x00, 0x00, 0x01, 0x00, 0x00, 0xb5, 0xf6, 0xff, 0xff,
  0xfd, 0xfd, 0xff, 0xff, 0xb1, 0xf2, 0xff, 0xff, 0xb0, 0x07, 0x00, 0x00,
  0x13, 0xff, 0xff, 0xff, 0x40, 0x05, 0x00, 0x00, 0xa0, 0x01, 0x00, 0x00,
  0x62, 0xf9, 0xff, 0xff, 0x3b, 0xfd, 0xff, 0xff, 0x9b, 0x09, 0x00, 0x00,
  0x24, 0xf8, 0xff, 0xff, 0x10, 0x02, 0x00, 0x00, 0x1e, 0x01, 0x00, 0x00,
  0x82, 0x02, 0x00, 0x00, 0x83, 0x06, 0x00, 0x00, 0x52, 0xfb, 0xff, 0xff,
  0x20, 0x0a, 0x00, 0x00, 0x4a, 0x0c, 0x00, 0x00, 0xaa, 0x06, 0x00, 0x00,
  0x7c, 0xfe, 0xff, 0xff, 0x8b, 0xf6, 0xff, 0xff, 0x6c, 0xfb, 0xff, 0xff,
  0xd1, 0x05, 0x00, 0x00, 0xad, 0x04, 0x00, 0x00, 0x9a, 0x06, 0x00, 0x00,
  0x48, 0xfe, 0xff, 0xff, 0x5b, 0x06, 0x00, 0x00, 0x5c, 0x02, 0x00, 0x00,
  0xca, 0x02, 0x00, 0x00, 0x79, 0xfd, 0xff, 0xff, 0xb0, 0xf9, 0xff, 0xff,
  0x7d, 0x08, 0x00, 0x00, 0x29, 0x0d, 0x00, 0x00, 0x31, 0xfa, 0xff, 0xff,
  0xb5, 0xfa, 0xff, 0xff, 0x16, 0x0a, 0x00, 0x00, 0x63, 0xfc, 0xff, 0xff,
  0x10, 0xff, 0xff, 0xff, 0xc7, 0xf7, 0xff, 0xff, 0xed, 0x06, 0x00, 0x00,
  0x78, 0x02, 0x00, 0x00, 0x2b, 0xff, 0xff, 0xff, 0x84, 0x04, 0x00, 0x00,
  0x62, 0xff, 0xff, 0xff, 0x21, 0x05, 0x00, 0x00, 0xe4, 0x07, 0x00, 0x00,
  0x86, 0xff, 0xff, 0xff, 0x0c, 0x0a, 0x00, 0x00, 0xf8, 0x0e, 0x00, 0x00,
  0x23, 0x03, 0x00, 0x00, 0x8b, 0x01, 0x00, 0x00, 0x27, 0xf6, 0xff, 0xff,
  0x28, 0xff, 0xff, 0xff, 0xad, 0x05, 0x00, 0x00, 0x3b, 0x0b, 0x00, 0x00,
  0x3f, 0x0c, 0x00, 0x00, 0x98, 0xfb, 0xff, 0xff, 0x14, 0x00, 0x00, 0x00,
  0xea, 0x08, 0x00, 0x00, 0x83, 0x09, 0x00, 0x00, 0x0e, 0x13, 0x00, 0x00,
  0x3f, 0x05, 0x00, 0x00, 0x8b, 0x07, 0x00, 0x00, 0x74, 0xff, 0xff, 0xff,
  0x2a, 0xf7, 0xff, 0xff, 0x04, 0x00, 0x00, 0x00, 0x00, 0x08, 0x00, 0x00,
  0xf7, 0xe2, 0x28, 0x3b, 0xde, 0x05, 0xea, 0x79, 0x7f, 0x4a, 0x25, 0xd5,
  0xdd, 0xd6, 0xc3, 0x6b, 0x21, 0xdb, 0xf5, 0x55, 0x78, 0xce, 0x07, 0x9b,
  0xe3, 0x01, 0xed, 0xcd, 0x17, 0xdc, 0x77, 0xe8, 0xe8, 0xd6, 0x0c, 0xf4,
  0xfc, 0xfc, 0xad, 0x15, 0x3b, 0x46, 0xf6, 0x25, 0x47, 0x09, 0x15, 0x14,
  0xc9, 0xf1, 0x37, 0xf9, 0x0d, 0xcc, 0x34, 0x26, 0xe1, 0x2a, 0x23, 0xd1,
  0x16, 0x3b, 0x5d, 0x04, 0x45, 0x0c, 0xdf, 0x20, 0x3d, 0xa0, 0xe8, 0xcd,
  0x46, 0x2e, 0x1b, 0x27, 0x3b, 0x1d, 0x68, 0x1a, 0x9a, 0x6e, 0xc8, 0xb9,
  0x92, 0xf3, 0xc2, 0x00, 0xcc, 0x5b, 0xdf, 0xb4, 0xae, 0xcd, 0x88, 0xa9,
  0x55, 0xdd, 0xae, 0x28, 0x55, 0x2d, 0x4b, 0x8d, 0xa2, 0x81, 0xb8, 0xd8,
  0xa8, 0x1e, 0x73, 0xee, 0xe0, 0x2c, 0xe3, 0xee, 0x27, 0x58, 0xab, 0x64,
  0xea, 0x83, 0xd3, 0xe4, 0x82, 0xab, 0xd2, 0xa1, 0x6d, 0x31, 0xde, 0x9e,
  0x00, 0x40, 0x35, 0xe2, 0x7f, 0x47, 0xe1, 0xf5, 0x71, 0x33, 0xc4, 0x5c,
  0x0c, 0xaa, 0x54, 0xf0, 0x09, 0x31, 0x02, 0x11, 0xbf, 0x66, 0x6b, 0x17,
  0x09, 0x02, 0x41, 0xe2, 0x1d, 0x11, 0x14, 0x4b, 0x4a, 0xfe, 0x62, 0x6f,
  0x22, 0x02, 0xd3, 0x54, 0xf0, 0x74, 0x05, 0x00, 0x4a, 0x4f, 0x22, 0xa0,
  0x2a, 0xaf, 0x6c, 0xde, 0x39, 0x52, 0xe2, 0x1b, 0x49, 0x44, 0xc0, 0xff,
  0xc7, 0x81, 0xa7, 0x31, 0xe4, 0x47, 0x97, 0xb3, 0xed, 0x91, 0xe1, 0x1b,
  0x81, 0x92, 0x59, 0xc5, 0x3a, 0x4f, 0xf7, 0xdd, 0xba, 0x9d, 0x48, 0xfe,
  0x7f, 0x85, 0xbf, 0x5d, 0x8e, 0x12, 0x34, 0x45, 0xdf, 0xfb, 0x14, 0xa8,
  0xf2, 0xe3, 0x24, 0xd2, 0x33, 0xfb, 0x65, 0xaa, 0xa2, 0xd0, 0x78, 0xc5,
  0x65, 0x90, 0x27, 0xf2, 0x4e, 0xda, 0xd0, 0x6f, 0xba, 0xa8, 0x48, 0x9b,
  0xf3, 0x34, 0x4f, 0x39, 0x6c, 0x17, 0x07, 0xce, 0x26, 0xf5, 0x75, 0xe7,
  0xe7, 0xdf, 0xdc, 0x6b, 0x63, 0x2c, 0xc0, 0x35, 0xea, 0xbd, 0x13, 0xe6,
  0x44, 0x72, 0xf4, 0xfe, 0x40, 0x7a, 0xf5, 0xf0, 0x6f, 0x1b, 0x03, 0xfc,
  0xd3, 0xfa, 0x32, 0x35, 0xda, 0xc5, 0xea, 0x39, 0x36, 0x57, 0xbe, 0xdb,
  0x50, 0xf9, 0x2d, 0xde, 0xf0, 0x30, 0x1c, 0x0b, 0x3d, 0x1a, 0xc7, 0x2b,
  0x6e, 0xc6, 0x25, 0xed, 0x2e, 0x21, 0xff, 0x7f, 0x1a, 0x17, 0xed, 0xdd,
  0x66, 0xa9, 0x7f, 0x4c, 0x01, 0x22, 0x3a, 0xd5, 0xc4, 0xfb, 0x23, 0x44,
  0xfc, 0xba, 0x20, 0x37, 0xe9, 0xec, 0xc0, 0xb8, 0xd0, 0xec, 0x11, 0xff,
  0xdb, 0xff, 0x57, 0x01, 0xef, 0x45, 0xd1, 0x66, 0x0b, 0x08, 0xba, 0x2d,
  0xe2, 0xe2, 0x23, 0x7b, 0xfc, 0x4c, 0xf2, 0x2c, 0x03, 0xfe, 0x1f, 0xdc,
  0xb8, 0xdf, 0x5b, 0xdc, 0x4a, 0x4a, 0xcb, 0x54, 0xe4, 0xdc, 0x44, 0xe2,
  0x39, 0x20, 0x3a, 0x81, 0x21, 0xa0, 0x00, 0x17, 0x8f, 0x47, 0x23, 0xdf,
  0x33, 0xaf, 0x95, 0xcc, 0xe5, 0x5e, 0xc7, 0xf8, 0x03, 0xde, 0xb1, 0x33,
  0xbf, 0xb7, 0xda, 0x07, 0x49, 0x3b, 0xde, 0xa5, 0xe5, 0xaa, 0xf7, 0x4a,
  0xc2, 0x45, 0xf7, 0x9f, 0x0e, 0x29, 0xf6, 0x19, 0xdf, 0x13, 0xa0, 0xda,
  0xf6, 0xa4, 0xb0, 0x14, 0xcf, 0x87, 0x18, 0x16, 0x84, 0xec, 0xef, 0x1e,
  0xfa, 0x38, 0x59, 0xc6, 0x2c, 0x0c, 0x2f, 0xb6, 0x2d, 0x22, 0x2c, 0x2b,
  0x51, 0x1d, 0xfb, 0xef, 0x70, 0x2d, 0xe2, 0x12, 0xe6, 0x2d, 0x2e, 0x28,
  0x18, 0xe6, 0x19, 0xd8, 0xae, 0x01, 0x6a, 0x2e, 0x47, 0x2b, 0xd4, 0xa5,
  0x27, 0xf1, 0x35, 0x5a, 0x56, 0xb1, 0x56, 0x35, 0x3a, 0xcf, 0xeb, 0x76,
  0x5d, 0x0a, 0x33, 0xef, 0x36, 0x7f, 0x0c, 0x2d, 0xdc, 0xcd, 0x14, 0x43,
  0x7f, 0x13, 0xe7, 0x31, 0x72, 0x2e, 0x5c, 0x22, 0xa6, 0xbc, 0xd4, 0xe5,
  0x0b, 0x2a, 0x89, 0xf7, 0xa3, 0x40, 0x1c, 0xd1, 0xe2, 0xab, 0x7c, 0x34,
  0x1c, 0xeb, 0xe9, 0x1e, 0xf0, 0xdd, 0xe0, 0x7c, 0x62, 0xaa, 0xb9, 0x06,
  0xce, 0xd7, 0x51, 0x1d, 0x37, 0xa4, 0xbb, 0xe9, 0x29, 0x2d, 0xec, 0xdb,
  0xc0, 0x99, 0x7a, 0x97, 0xd1, 0xa3, 0x17, 0xbe, 0x7f, 0x1c, 0xf1, 0x28,
  0xdd, 0xed, 0xe9, 0x46, 0x13, 0xda, 0x2f, 0xf1, 0xd2, 0x98, 0x0d, 0xc6,
  0x0a, 0x65, 0x03, 0xab, 0x15, 0x63, 0x4a, 0xe2, 0x71, 0x51, 0x23, 0x03,
  0xfd, 0xd5, 0x15, 0xe5, 0x3f, 0xd8, 0x61, 0x27, 0x15, 0x36, 0xd4, 0xc8,
  0x31, 0x3c, 0xd0, 0xb2, 0xed, 0xe4, 0xfc, 0x1a, 0xed, 0x5b, 0x2a, 0x48,
  0x1c, 0x0a, 0x35, 0xf8, 0x62, 0x01, 0xb3, 0xda, 0x46, 0x57, 0xd3, 0x28,
  0xf5, 0x7f, 0xee, 0x44, 0xf3, 0xf2, 0xdc, 0xaa, 0x5b, 0xc5, 0x2e, 0xf9,
  0x76, 0x61, 0xcd, 0x62, 0x34, 0xdd, 0x67, 0x0a, 0xe6, 0xcc, 0xf5, 0x03,
  0xfe, 0xfe, 0x5e, 0x3f, 0x09, 0xda, 0x00, 0x2f, 0xee, 0xc6, 0x18, 0x02,
  0x5d, 0x31, 0xc9, 0xf3, 0xcf, 0x07, 0xe5, 0xe4, 0x67, 0x44, 0x1d, 0xf4,
  0x2e, 0x2a, 0xdc, 0x07, 0xfd, 0x28, 0x53, 0x28, 0x5a, 0x68, 0x17, 0x6a,
  0xd5, 0x3c, 0x02, 0x6f, 0x16, 0x5b, 0x32, 0x2f, 0xec, 0x2d, 0x4d, 0xdc,
  0x5a, 0xdd, 0x1f, 0x1b, 0x7f, 0x57, 0x02, 0x11, 0xdc, 0xd0, 0x3f, 0x1f,
  0x27, 0xd9, 0x69, 0x66, 0x09, 0x12, 0x64, 0x12, 0x34, 0x54, 0xb1, 0xfb,
  0x31, 0x1b, 0xee, 0x18, 0x75, 0x57, 0xb9, 0x04, 0x08, 0x5d, 0x62, 0xa8,
  0xc8, 0xf9, 0x71, 0xff, 0x0d, 0xc7, 0x11, 0x07, 0xe7, 0xde, 0xe4, 0x4f,
  0x01, 0x5b, 0xc0, 0x7f, 0x0e, 0x3e, 0xbe, 0x35, 0x1f, 0x70, 0xf5, 0xb8,
  0x57, 0x2d, 0x23, 0xac, 0x62, 0x05, 0xd2, 0x0e, 0x66, 0xdc, 0x66, 0x62,
  0x62, 0x64, 0x25, 0xeb, 0xe5, 0x1c, 0x40, 0xf7, 0xe5, 0x22, 0x0e, 0x32,
  0x4a, 0x2f, 0xd5, 0xd4, 0xe2, 0xd3, 0x58, 0xf9, 0xef, 0x02, 0xe7, 0x2b,
  0x04, 0x0f, 0xf5, 0x27, 0xfc, 0x3f, 0x4e, 0xaf, 0xf2, 0x05, 0x66, 0xca,
  0x33, 0xc2, 0x3a, 0x5d, 0x0c, 0x24, 0xbd, 0x3a, 0x6f, 0x75, 0x20, 0x69,
  0xff, 0xf1, 0x4c, 0xe8, 0xff, 0xd8, 0x3f, 0x1d, 0x0b, 0xf8, 0x2b, 0xf5,
  0x06, 0x49, 0xff, 0x7f, 0x0f, 0x06, 0x09, 0xdf, 0xce, 0xcb, 0x2c, 0x87,
  0xc7, 0x9b, 0x4e, 0x81, 0xf9, 0x3a, 0xc3, 0xc9, 0xd6, 0xfe, 0xf9, 0xde,
  0x97, 0x0f, 0xdf, 0xde, 0x88, 0xba, 0x46, 0xa5, 0x13, 0x35, 0x44, 0x98,
  0x2d, 0xcd, 0xee, 0xbc, 0x38, 0x51, 0x26, 0x38, 0x13, 0x4b, 0x4f, 0xb2,
  0xfe, 0x3e, 0x6d, 0x0c, 0x2d, 0xfa, 0xd3, 0xa7, 0xe9, 0x05, 0x09, 0xdb,
  0x8a, 0x22, 0x32, 0x30, 0xc2, 0x87, 0xb5, 0xb8, 0x6a, 0xc0, 0x7d, 0xe6,
  0x25, 0x31, 0x25, 0xea, 0x45, 0x37, 0x47, 0xb5, 0x0f, 0xe8, 0x1b, 0x44,
  0xb7, 0xaf, 0x38, 0x78, 0x30, 0xeb, 0x4a, 0xc3, 0xf7, 0xd4, 0x4f, 0x34,
  0x5e, 0x19, 0x13, 0xf0, 0x20, 0xbd, 0x08, 0xea, 0x56, 0x9a, 0x18, 0xe3,
  0x7c, 0xc6, 0xe3, 0x27, 0x3d, 0x69, 0xe8, 0x7b, 0xe9, 0xd1, 0x1b, 0xba,
  0x2b, 0x3d, 0xd4, 0x02, 0x3a, 0x6c, 0xec, 0x33, 0x7f, 0xd5, 0xea, 0xfe,
  0x19, 0x0c, 0xdd, 0xcb, 0x0f, 0x3a, 0x12, 0x20, 0xea, 0x06, 0xf0, 0x49,
  0x66, 0x3e, 0x2a, 0xce, 0x16, 0xcb, 0x40, 0x05, 0x46, 0x7f, 0xc7, 0x01,
  0x01, 0x7a, 0xcf, 0x0a, 0x26, 0x1e, 0x27, 0x24, 0xc0, 0xe0, 0x33, 0xcd,
  0xd3, 0xf9, 0xe5, 0xcd, 0x24, 0x64, 0xc5, 0x6e, 0x3a, 0x5b, 0xe0, 0x02,
  0x05, 0x2e, 0x45, 0xe0, 0xf9, 0xc0, 0x37, 0xf7, 0x2f, 0x71, 0xfb, 0x23,
  0x70, 0x3b, 0x09, 0x46, 0x5a, 0xe3, 0x1f, 0x1f, 0x5c, 0xe4, 0x1c, 0x75,
  0x14, 0x3d, 0x56, 0x0b, 0x24, 0xf9, 0x26, 0x38, 0xca, 0xe9, 0x0b, 0x6e,
  0x3d, 0x10, 0xf0, 0x1a, 0x05, 0x35, 0xfe, 0xb7, 0xdc, 0x22, 0x5f, 0x07,
  0xec, 0x41, 0x7f, 0x40, 0xd0, 0xa3, 0x22, 0xe1, 0x17, 0x52, 0xe8, 0x2c,
  0xc5, 0x70, 0x1a, 0xf7, 0x1d, 0x14, 0x43, 0xd1, 0x64, 0xc4, 0x03, 0x18,
  0x65, 0x20, 0xd9, 0xdb, 0xef, 0xfa, 0x30, 0x53, 0xfa, 0x2e, 0xf5, 0x40,
  0x64, 0xd4, 0x1c, 0xf1, 0x18, 0x0e, 0x0c, 0x37, 0x07, 0x0e, 0x9d, 0xe9,
  0xb1, 0x2a, 0x65, 0xef, 0xf2, 0xfc, 0xb9, 0xee, 0xce, 0x7f, 0xce, 0xbe,
  0xdc, 0x1d, 0xfc, 0x0a, 0xb7, 0xc7, 0xf1, 0x61, 0x23, 0xe2, 0x10, 0xe2,
  0x20, 0x04, 0xc8, 0xeb, 0x2d, 0xeb, 0x3a, 0xdc, 0x16, 0x0c, 0x4b, 0xb5,
  0x1e, 0xb7, 0x11, 0x30, 0xf2, 0x57, 0xdd, 0x39, 0x44, 0x3e, 0x5b, 0x36,
  0x19, 0x17, 0x0d, 0x4c, 0xaf, 0xfa, 0xe0, 0x93, 0x43, 0x36, 0x57, 0xaa,
  0x88, 0xca, 0x7f, 0xc2, 0xf8, 0x46, 0x96, 0x14, 0xa5, 0xe0, 0x70, 0xc9,
  0xc0, 0xd9, 0x9e, 0x3d, 0xab, 0xa6, 0xb8, 0xf5, 0xd0, 0xf0, 0xf2, 0x11,
  0x91, 0x08, 0xb4, 0x21, 0xa4, 0xa3, 0x7f, 0xfc, 0x48, 0xaa, 0x74, 0x08,
  0x25, 0xb3, 0xe2, 0xda, 0x2c, 0x58, 0x36, 0xde, 0xde, 0x26, 0x2d, 0xfc,
  0xcc, 0x3e, 0xa7, 0x26, 0xea, 0x19, 0x62, 0x0f, 0x32, 0xad, 0x7a, 0x7f,
  0x5f, 0x5b, 0xeb, 0x0f, 0x36, 0x39, 0xc7, 0xeb, 0x28, 0xea, 0x5c, 0x4a,
  0x16, 0x52, 0xd2, 0xcc, 0xe6, 0x1e, 0x68, 0xc0, 0x5b, 0xf7, 0x77, 0x1b,
  0xfb, 0x45, 0x34, 0x09, 0x3e, 0x36, 0xed, 0xfb, 0x60, 0x00, 0xdf, 0x67,
  0xc7, 0xd2, 0xce, 0x22, 0x21, 0xee, 0x39, 0xf4, 0x57, 0x3f, 0xda, 0xc4,
  0x0f, 0x08, 0xd6, 0x3b, 0x54, 0x56, 0x5f, 0xdb, 0xf1, 0x27, 0x61, 0xb6,
  0x60, 0x59, 0xef, 0xd8, 0x48, 0x53, 0xf4, 0x30, 0x1b, 0xd0, 0xcf, 0x03,
  0xe6, 0x3b, 0xe6, 0x38, 0x51, 0x59, 0x45, 0x2c, 0x1d, 0x05, 0xd5, 0x01,
  0xee, 0x43, 0xda, 0xd0, 0xd1, 0xd1, 0xe8, 0x45, 0x01, 0xa0, 0xdf, 0x5d,
  0x38, 0xe9, 0xc3, 0xdf, 0x20, 0x2b, 0x43, 0x39, 0xe3, 0x7f, 0x17, 0xc3,
  0xd5, 0xf9, 0x57, 0x19, 0x12, 0x5f, 0xfa, 0x60, 0xdb, 0x30, 0xf8, 0xdd,
  0x22, 0xdb, 0xab, 0x54, 0xef, 0x35, 0x9d, 0xdb, 0x22, 0xd0, 0x2a, 0x9b,
  0x9f, 0xbd, 0x12, 0x43, 0x31, 0xf6, 0xde, 0x8b, 0x8b, 0xb8, 0x61, 0x1c,
  0x12, 0x9b, 0xac, 0xe6, 0xff, 0xad, 0x32, 0x7f, 0x6a, 0xaf, 0xe5, 0xe6,
  0xd9, 0x2b, 0xc2, 0x3e, 0xc4, 0x19, 0x5d, 0xae, 0xdb, 0xbb, 0x5a, 0x99,
  0x4c, 0x3a, 0xec, 0x73, 0xae, 0x5c, 0x09, 0x18, 0xf6, 0xa0, 0x58, 0xa4,
  0x22, 0xb8, 0xa3, 0xc4, 0x04, 0x27, 0xca, 0x5d, 0x09, 0xcb, 0xd2, 0xa4,
  0x14, 0x37, 0x4e, 0xed, 0x1d, 0x35, 0x47, 0x4c, 0x17, 0x71, 0xc9, 0xed,
  0x92, 0xd6, 0xd5, 0x30, 0x4d, 0xe3, 0x98, 0xff, 0xb5, 0xb7, 0x10, 0x13,
  0x3d, 0xd1, 0xec, 0x32, 0x39, 0xfe, 0x38, 0xe3, 0x45, 0x8b, 0x7f, 0xc2,
  0xf8, 0x95, 0x0d, 0x2b, 0x75, 0x1e, 0x11, 0x01, 0x03, 0xb2, 0x8f, 0x17,
  0xb1, 0xbf, 0xcf, 0x9d, 0x9b, 0xf3, 0xbb, 0xc3, 0x32, 0xe9, 0x05, 0xc6,
  0x58, 0x24, 0x3d, 0x69, 0x7c, 0xea, 0xda, 0xd2, 0xe4, 0xdd, 0xe7, 0x18,
  0x2a, 0xb3, 0xff, 0x2c, 0xe2, 0x0c, 0x0f, 0xda, 0xd5, 0x27, 0x46, 0x9b,
  0x72, 0x50, 0x2b, 0x1e, 0xc2, 0x4c, 0x2c, 0xfc, 0x1b, 0xa0, 0x09, 0x34,
  0x72, 0xf3, 0xc6, 0xd6, 0x30, 0x32, 0xcf, 0x45, 0x39, 0x7f, 0x2d, 0xb2,
  0x63, 0x01, 0x21, 0xa0, 0x19, 0x39, 0x39, 0xfc, 0x27, 0x3f, 0x5b, 0x55,
  0x10, 0xbe, 0x15, 0x61, 0xde, 0x35, 0xd8, 0x0a, 0x07, 0xc2, 0xde, 0xd4,
  0x20, 0x1f, 0x32, 0x23, 0x28, 0x72, 0x0d, 0xe2, 0xa4, 0xe7, 0x43, 0x4c,
  0x2c, 0xcf, 0xae, 0x54, 0xad, 0xff, 0xa1, 0x69, 0xf5, 0xe1, 0xd7, 0x9f,
  0x1b, 0x6d, 0xcd, 0xc5, 0x28, 0x81, 0x2f, 0x98, 0x1c, 0x89, 0x07, 0x06,
  0x3d, 0x84, 0x15, 0x3d, 0x36, 0x76, 0x06, 0x51, 0xca, 0x13, 0xeb, 0x35,
  0x00, 0x1f, 0xf3, 0x25, 0xb6, 0xad, 0x9f, 0xff, 0x0a, 0xe3, 0x05, 0xb4,
  0xce, 0x21, 0xbf, 0xcf, 0xaa, 0xb6, 0x11, 0x3a, 0x6f, 0xfb, 0x8e, 0xf9,
  0x9f, 0x33, 0x5a, 0x4b, 0x15, 0xed, 0xeb, 0x3e, 0x8f, 0x1a, 0xd3, 0x41,
  0x51, 0xa0, 0x4f, 0xa8, 0x54, 0x4c, 0x97, 0x4e, 0xde, 0x27, 0x1c, 0xef,
  0xc5, 0x45, 0xcb, 0xb3, 0x43, 0x2a, 0xc9, 0x18, 0xd0, 0x52, 0xc8, 0x28,
  0xad, 0xf5, 0x54, 0xde, 0x81, 0xa0, 0xc2, 0xbc, 0xd8, 0x75, 0xa7, 0x2c,
  0xad, 0xea, 0x28, 0x0e, 0x6f, 0xcf, 0xb1, 0x47, 0xfb, 0x48, 0x81, 0xda,
  0xea, 0x3b, 0x00, 0x68, 0xf3, 0x15, 0x43, 0x2c, 0x3a, 0x46, 0x79, 0xce,
  0xf6, 0x13, 0xfd, 0xac, 0x8e, 0xd7, 0xbe, 0x4f, 0xd4, 0xaa, 0x5b, 0x25,
  0xc3, 0xf2, 0xf6, 0xca, 0xfc, 0x50, 0x85, 0x6f, 0x23, 0x1f, 0x76, 0xbd,
  0xc1, 0xe5, 0x14, 0x2e, 0xe8, 0x7c, 0x50, 0xfc, 0x17, 0x6e, 0x14, 0x34,
  0xca, 0x88, 0x11, 0x5e, 0x04, 0xde, 0x81, 0xd1, 0xc5, 0xa7, 0xe2, 0x9e,
  0xe5, 0xf0, 0x16, 0x4d, 0x21, 0x7c, 0x25, 0xea, 0xba, 0x24, 0x46, 0x0a,
  0x49, 0x2e, 0xcc, 0x5f, 0xf8, 0xb2, 0xa9, 0x62, 0x52, 0x96, 0x9b, 0x2b,
  0xc6, 0x7e, 0xd7, 0xa2, 0xd2, 0xe2, 0xce, 0xba, 0xd8, 0xd5, 0xf7, 0x0c,
  0x51, 0x25, 0x05, 0xc5, 0x33, 0x38, 0xb0, 0x54, 0x06, 0xfe, 0x57, 0xac,
  0xb6, 0xf1, 0x2e, 0xb0, 0x96, 0xce, 0x1a, 0x56, 0x0d, 0xfb, 0x05, 0x1a,
  0xf1, 0x2d, 0xb3, 0xe2, 0xae, 0xda, 0x0d, 0xb7, 0x5f, 0xec, 0x1e, 0xfa,
  0x8e, 0xb0, 0xe9, 0x5b, 0x7d, 0x93, 0x81, 0x4a, 0x20, 0xf0, 0x27, 0x55,
  0x74, 0xc1, 0xb0, 0x99, 0x06, 0x45, 0xef, 0xc2, 0x21, 0x35, 0xff, 0xe2,
  0x25, 0xf3, 0xcc, 0xea, 0x5d, 0xa5, 0x94, 0x26, 0xe4, 0x40, 0x8d, 0x12,
  0x0d, 0xc8, 0x3f, 0xcc, 0xca, 0xf3, 0xca, 0xd5, 0xef, 0x64, 0xfc, 0x45,
  0xd4, 0xf5, 0x2a, 0x6c, 0x4a, 0x2c, 0xe6, 0x30, 0x5e, 0x25, 0xeb, 0xe9,
  0xc5, 0x19, 0x45, 0x21, 0x7a, 0xe0, 0xe2, 0x22, 0xe1, 0x34, 0x24, 0xdc,
  0xd8, 0x7f, 0xd4, 0xfc, 0xde, 0x0e, 0x36, 0xc9, 0x6b, 0x3a, 0x42, 0x4d,
  0x5f, 0x62, 0xdc, 0x79, 0x5d, 0xd4, 0xc8, 0xd7, 0xdd, 0xf2, 0x33, 0xe5,
  0xf2, 0x0a, 0xef, 0xd3, 0x03, 0x5b, 0x06, 0xec, 0x6e, 0x03, 0x42, 0xe4,
  0xd0, 0x03, 0x1e, 0x04, 0x10, 0xf9, 0xc0, 0xe6, 0xe0, 0xbc, 0xbd, 0x13,
  0x0f, 0xfb, 0x7f, 0x12, 0x10, 0x6a, 0x0d, 0xb0, 0x13, 0xbf, 0x62, 0xeb,
  0x35, 0x17, 0x21, 0x48, 0x2d, 0x09, 0x16, 0xfd, 0x10, 0x07, 0x1f, 0x0c,
  0xbe, 0x1a, 0xd1, 0xbf, 0xe8, 0x0a, 0x4d, 0x1f, 0xd5, 0x07, 0x48, 0xed,
  0xc7, 0x2c, 0xdd, 0x4d, 0x17, 0xf7, 0xa6, 0xe3, 0x24, 0x0b, 0x45, 0x01,
  0x1c, 0x27, 0xdb, 0xcd, 0x6d, 0xd5, 0x50, 0xa1, 0xe5, 0xdc, 0x7f, 0x3e,
  0x67, 0x3e, 0x7b, 0x3e, 0x33, 0xd6, 0xd7, 0x49, 0x21, 0xa8, 0xf7, 0xed,
  0x2d, 0x41, 0xe0, 0xb5, 0x29, 0x68, 0xcf, 0xd9, 0x3a, 0x5e, 0x64, 0x14,
  0xb1, 0x23, 0x66, 0x4a, 0xf1, 0xfe, 0x1e, 0x59, 0x25, 0x4b, 0x1a, 0x1d,
  0x62, 0xfe, 0xb1, 0x06, 0x36, 0x65, 0x35, 0x4c, 0x55, 0xa5, 0x63, 0x1a,
  0x79, 0x0a, 0xf8, 0x70, 0xe0, 0x10, 0x5a, 0x24, 0x36, 0xff, 0xff, 0xff,
  0x04, 0x00, 0x00, 0x00, 0x80, 0x00, 0x00, 0x00, 0x09, 0xfa, 0xff, 0xff,
  0x16, 0x05, 0x00, 0x00, 0x95, 0x09, 0x00, 0x00, 0xfa, 0x18, 0x00, 0x00,
  0xc7, 0x05, 0x00, 0x00, 0x6b, 0x07, 0x00, 0x00, 0x10, 0xf0, 0xff, 0xff,
  0x0c, 0xff, 0xff, 0xff, 0x44, 0x19, 0x00, 0x00, 0x33, 0x06, 0x00, 0x00,
  0x08, 0x00, 0x00, 0x00, 0x56, 0x04, 0x00, 0x00, 0xa1, 0x09, 0x00, 0x00,
  0x6c, 0xf7, 0xff, 0xff, 0xd2, 0x01, 0x00, 0x00, 0x65, 0x04, 0x00, 0x00,
  0xe3, 0xfc, 0xff, 0xff, 0x07, 0x08, 0x00, 0x00, 0x97, 0x10, 0x00, 0x00,
  0x9b, 0xfd, 0xff, 0xff, 0x78, 0x01, 0x00, 0x00, 0x59, 0x19, 0x00, 0x00,
  0x0c, 0x12, 0x00, 0x00, 0x54, 0x03, 0x00, 0x00, 0x66, 0x10, 0x00, 0x00,
  0xab, 0x17, 0x00, 0x00, 0xde, 0xfd, 0xff, 0xff, 0xca, 0x1e, 0x00, 0x00,
  0xa1, 0x15, 0x00, 0x00, 0xb3, 0x09, 0x00, 0x00, 0xc1, 0x06, 0x00, 0x00,
  0x04, 0x07, 0x00, 0x00, 0xc2, 0xff, 0xff, 0xff, 0x04, 0x00, 0x00, 0x00,
  0x20, 0x00, 0x00, 0x00, 0xa3, 0x5a, 0xd4, 0x7f, 0xbb, 0x89, 0x28, 0xa7,
  0x50, 0xd4, 0xe2, 0xb9, 0xab, 0x23, 0xcb, 0xdb, 0xa8, 0xb2, 0x3a, 0x95,
  0xc6, 0x7f, 0x40, 0xa9, 0x4f, 0x74, 0xc4, 0x4c, 0x60, 0xd0, 0x64, 0xc9,
  0xee, 0xff, 0xff, 0xff, 0x04, 0x00, 0x00, 0x00, 0x04, 0x00, 0x00, 0x00,
  0x9d, 0x03, 0x00, 0x00, 0x00, 0x00, 0x06, 0x00, 0x08, 0x00, 0x04, 0x00,
  0x06, 0x00, 0x00, 0x00, 0x04, 0x00, 0x00, 0x00, 0x08, 0x00, 0x00, 0x00,
  0x01, 0x00, 0x00, 0x00, 0x02, 0x00, 0x00, 0x00, 0x54, 0xc8, 0xff, 0xff,
  0x58, 0xc8, 0xff, 0xff, 0x0f, 0x00, 0x00, 0x00, 0x4d, 0x4c, 0x49, 0x52,
  0x20, 0x43, 0x6f, 0x6e, 0x76, 0x65, 0x72, 0x74, 0x65, 0x64, 0x2e, 0x00,
  0x01, 0x00, 0x00, 0x00, 0x14, 0x00, 0x00, 0x00, 0x00, 0x00, 0x0e, 0x00,
  0x18, 0x00, 0x14, 0x00, 0x10, 0x00, 0x0c, 0x00, 0x08, 0x00, 0x04, 0x00,
  0x0e, 0x00, 0x00, 0x00, 0x14, 0x00, 0x00, 0x00, 0x1c, 0x00, 0x00, 0x00,
  0xbc, 0x04, 0x00, 0x00, 0xc0, 0x04, 0x00, 0x00, 0xc4, 0x04, 0x00, 0x00,
  0x04, 0x00, 0x00, 0x00, 0x6d, 0x61, 0x69, 0x6e, 0x00, 0x00, 0x00, 0x00,
  0x13, 0x00, 0x00, 0x00, 0x84, 0x04, 0x00, 0x00, 0x28, 0x04, 0x00, 0x00,
  0xe4, 0x03, 0x00, 0x00, 0xb0, 0x03, 0x00, 0x00, 0x58, 0x03, 0x00, 0x00,
  0xf4, 0x02, 0x00, 0x00, 0xc0, 0x02, 0x00, 0x00, 0x8c, 0x02, 0x00, 0x00,
  0x38, 0x02, 0x00, 0x00, 0xf0, 0x01, 0x00, 0x00, 0xa8, 0x01, 0x00, 0x00,
  0x74, 0x01, 0x00, 0x00, 0x40, 0x01, 0x00, 0x00, 0x0c, 0x01, 0x00, 0x00,
  0xc8, 0x00, 0x00, 0x00, 0x8c, 0x00, 0x00, 0x00, 0x54, 0x00, 0x00, 0x00,
  0x30, 0x00, 0x00, 0x00, 0x04, 0x00, 0x00, 0x00, 0xd2, 0xfb, 0xff, 0xff,
  0x08, 0x00, 0x00, 0x00, 0x0c, 0x00, 0x00, 0x00, 0x01, 0x00, 0x00, 0x00,
  0x2a, 0x00, 0x00, 0x00, 0x01, 0x00, 0x00, 0x00, 0x29, 0x00, 0x00, 0x00,
  0x00, 0x00, 0x0a, 0x00, 0x10, 0x00, 0x0c, 0x00, 0x08, 0x00, 0x04, 0x00,
  0x0a, 0x00, 0x00, 0x00, 0x0c, 0x00, 0x00, 0x00, 0x10, 0x00, 0x00, 0x00,
  0x08, 0x00, 0x00, 0x00, 0x01, 0x00, 0x00, 0x00, 0x29, 0x00, 0x00, 0x00,
  0x01, 0x00, 0x00, 0x00, 0x28, 0x00, 0x00, 0x00, 0x76, 0xfc, 0xff, 0xff,
  0x14, 0x00, 0x00, 0x00, 0x00, 0x00, 0x00, 0x08, 0x10, 0x00, 0x00, 0x00,
  0x14, 0x00, 0x00, 0x00, 0x07, 0x00, 0x00, 0x00, 0x5c, 0xc9, 0xff, 0xff,
  0x01, 0x00, 0x00, 0x00, 0x28, 0x00, 0x00, 0x00, 0x03, 0x00, 0x00, 0x00,
  0x27, 0x00, 0x00, 0x00, 0x03, 0x00, 0x00, 0x00, 0x02, 0x00, 0x00, 0x00,
  0xaa, 0xfc, 0xff, 0xff, 0x14, 0x00, 0x00, 0x00, 0x00, 0x00, 0x00, 0x08,
  0x14, 0x00, 0x00, 0x00, 0x18, 0x00, 0x00, 0x00, 0x07, 0x00, 0x00, 0x00,
  0xc6, 0xff, 0xff, 0xff, 0x00, 0x00, 0x00, 0x01, 0x01, 0x00, 0x00, 0x00,
  0x27, 0x00, 0x00, 0x00, 0x03, 0x00, 0x00, 0x00, 0x26, 0x00, 0x00, 0x00,
  0x05, 0x00, 0x00, 0x00, 0x04, 0x00, 0x00, 0x00, 0xa6, 0xfd, 0xff, 0xff,
  0x1c, 0x00, 0x00, 0x00, 0x00, 0x00, 0x00, 0x08, 0x1c, 0x00, 0x00, 0x00,
  0x20, 0x00, 0x00, 0x00, 0x07, 0x00, 0x00, 0x00, 0x00, 0x00, 0x06, 0x00,
  0x08, 0x00, 0x07, 0x00, 0x06, 0x00, 0x00, 0x00, 0x00, 0x00, 0x00, 0x01,
  0x01, 0x00, 0x00, 0x00, 0x26, 0x00, 0x00, 0x00, 0x03, 0x00, 0x00, 0x00,
  0x25, 0x00, 0x00, 0x00, 0x07, 0x00, 0x00, 0x00, 0x06, 0x00, 0x00, 0x00,
  0x22, 0xfd, 0xff, 0xff, 0x14, 0x00, 0x00, 0x00, 0x00, 0x00, 0x00, 0x1b,
  0x10, 0x00, 0x00, 0x00, 0x14, 0x00, 0x00, 0x00, 0x06, 0x00, 0x00, 0x00,
  0x08, 0xca, 0xff, 0xff, 0x01, 0x00, 0x00, 0x00, 0x25, 0x00, 0x00, 0x00,
  0x02, 0x00, 0x00, 0x00, 0x24, 0x00, 0x00, 0x00, 0x01, 0x00, 0x00, 0x00,
  0x52, 0xfd, 0xff, 0xff, 0x14, 0x00, 0x00, 0x00, 0x00, 0x00, 0x00, 0x0b,
  0x10, 0x00, 0x00, 0x00, 0x14, 0x00, 0x00, 0x00, 0x03, 0x00, 0x00, 0x00,
  0x38, 0xca, 0xff, 0xff, 0x01, 0x00, 0x00, 0x00, 0x24, 0x00, 0x00, 0x00,
  0x02, 0x00, 0x00, 0x00, 0x23, 0x00, 0x00, 0x00, 0x08, 0x00, 0x00, 0x00,
  0x82, 0xfd, 0xff, 0xff, 0x14, 0x00, 0x00, 0x00, 0x00, 0x00, 0x00, 0x15,
  0x10, 0x00, 0x00, 0x00, 0x14, 0x00, 0x00, 0x00, 0x02, 0x00, 0x00, 0x00,
  0x68, 0xca, 0xff, 0xff, 0x01, 0x00, 0x00, 0x00, 0x23, 0x00, 0x00, 0x00,
  0x02, 0x00, 0x00, 0x00, 0x22, 0x00, 0x00, 0x00, 0x09, 0x00, 0x00, 0x00,
  0xb2, 0xfd, 0xff, 0xff, 0x14, 0x00, 0x00, 0x00, 0x00, 0x00, 0x00, 0x01,
  0x20, 0x00, 0x00, 0x00, 0x24, 0x00, 0x00, 0x00, 0x01, 0x00, 0x00, 0x00,
  0xc8, 0xfe, 0xff, 0xff, 0x00, 0x00, 0x00, 0x01, 0x01, 0x00, 0x00, 0x00,
  0x01, 0x00, 0x00, 0x00, 0x00, 0x00, 0x00, 0x01, 0x01, 0x00, 0x00, 0x00,
  0x22, 0x00, 0x00, 0x00, 0x03, 0x00, 0x00, 0x00, 0x21, 0x00, 0x00, 0x00,
  0x0b, 0x00, 0x00, 0x00, 0x0a, 0x00, 0x00, 0x00, 0xf6, 0xfd, 0xff, 0xff,
  0x14, 0x00, 0x00, 0x00, 0x00, 0x00, 0x00, 0x02, 0x20, 0x00, 0x00, 0x00,
  0x24, 0x00, 0x00, 0x00, 0x04, 0x00, 0x00, 0x00, 0xaa, 0xfe, 0xff, 0xff,
  0x00, 0x00, 0x00, 0x01, 0x01, 0x00, 0x00, 0x00, 0x01, 0x00, 0x00, 0x00,
  0x01, 0x00, 0x00, 0x00, 0x01, 0x00, 0x00, 0x00, 0x21, 0x00, 0x00, 0x00,
  0x03, 0x00, 0x00, 0x00, 0x20, 0x00, 0x00, 0x00, 0x0d, 0x00, 0x00, 0x00,
  0x0c, 0x00, 0x00, 0x00, 0xfe, 0xfe, 0xff, 0xff, 0x24, 0x00, 0x00, 0x00,
  0x00, 0x00, 0x00, 0x05, 0x34, 0x00, 0x00, 0x00, 0x38, 0x00, 0x00, 0x00,
  0x05, 0x00, 0x00, 0x00, 0x00, 0x00, 0x0e, 0x00, 0x18, 0x00, 0x17, 0x00,
  0x10, 0x00, 0x0c, 0x00, 0x08, 0x00, 0x04, 0x00, 0x0e, 0x00, 0x00, 0x00,
  0x02, 0x00, 0x00, 0x00, 0x02, 0x00, 0x00, 0x00, 0x02, 0x00, 0x00, 0x00,
  0x02, 0x00, 0x00, 0x00, 0x00, 0x00, 0x00, 0x01, 0x01, 0x00, 0x00, 0x00,
  0x20, 0x00, 0x00, 0x00, 0x01, 0x00, 0x00, 0x00, 0x1f, 0x00, 0x00, 0x00,
  0x8a, 0xfe, 0xff, 0xff, 0x14, 0x00, 0x00, 0x00, 0x00, 0x00, 0x00, 0x0b,
  0x10, 0x00, 0x00, 0x00, 0x14, 0x00, 0x00, 0x00, 0x03, 0x00, 0x00, 0x00,
  0x70, 0xcb, 0xff, 0xff, 0x01, 0x00, 0x00, 0x00, 0x1f, 0x00, 0x00, 0x00,
  0x02, 0x00, 0x00, 0x00, 0x1e, 0x00, 0x00, 0x00, 0x0e, 0x00, 0x00, 0x00,
  0xba, 0xfe, 0xff, 0xff, 0x14, 0x00, 0x00, 0x00, 0x00, 0x00, 0x00, 0x15,
  0x10, 0x00, 0x00, 0x00, 0x14, 0x00, 0x00, 0x00, 0x02, 0x00, 0x00, 0x00,
  0xa0, 0xcb, 0xff, 0xff, 0x01, 0x00, 0x00, 0x00, 0x1e, 0x00, 0x00, 0x00,
  0x02, 0x00, 0x00, 0x00, 0x1d, 0x00, 0x00, 0x00, 0x0f, 0x00, 0x00, 0x00,
  0xea, 0xfe, 0xff, 0xff, 0x20, 0x00, 0x00, 0x00, 0x00, 0x00, 0x00, 0x01,
  0x2c, 0x00, 0x00, 0x00, 0x30, 0x00, 0x00, 0x00, 0x01, 0x00, 0x00, 0x00,
  0x0c, 0x00, 0x14, 0x00, 0x13, 0x00, 0x0c, 0x00, 0x08, 0x00, 0x07, 0x00,
  0x0c, 0x00, 0x00, 0x00, 0x00, 0x00, 0x00, 0x01, 0x01, 0x00, 0x00, 0x00,
  0x01, 0x00, 0x00, 0x00, 0x00, 0x00, 0x00, 0x01, 0x01, 0x00, 0x00, 0x00,
  0x1d, 0x00, 0x00, 0x00, 0x03, 0x00, 0x00, 0x00, 0x1c, 0x00, 0x00, 0x00,
  0x11, 0x00, 0x00, 0x00, 0x10, 0x00, 0x00, 0x00, 0x00, 0x00, 0x0e, 0x00,
  0x1a, 0x00, 0x14, 0x00, 0x10, 0x00, 0x0c, 0x00, 0x0b, 0x00, 0x04, 0x00,
  0x0e, 0x00, 0x00, 0x00, 0x24, 0x00, 0x00, 0x00, 0x00, 0x00, 0x00, 0x02,
  0x30, 0x00, 0x00, 0x00, 0x34, 0x00, 0x00, 0x00, 0x04, 0x00, 0x00, 0x00,
  0x00, 0x00, 0x0e, 0x00, 0x14, 0x00, 0x00, 0x00, 0x10, 0x00, 0x0c, 0x00,
  0x08, 0x00, 0x07, 0x00, 0x0e, 0x00, 0x00, 0x00, 0x00, 0x00, 0x00, 0x01,
  0x01, 0x00, 0x00, 0x00, 0x01, 0x00, 0x00, 0x00, 0x01, 0x00, 0x00, 0x00,
  0x01, 0x00, 0x00, 0x00, 0x1c, 0x00, 0x00, 0x00, 0x03, 0x00, 0x00, 0x00,
  0x1b, 0x00, 0x00, 0x00, 0x13, 0x00, 0x00, 0x00, 0x12, 0x00, 0x00, 0x00,
  0x9e, 0xff, 0xff, 0xff, 0x14, 0x00, 0x00, 0x00, 0x00, 0x00, 0x00, 0x0b,
  0x10, 0x00, 0x00, 0x00, 0x14, 0x00, 0x00, 0x00, 0x03, 0x00, 0x00, 0x00,
  0x84, 0xcc, 0xff, 0xff, 0x01, 0x00, 0x00, 0x00, 0x1b, 0x00, 0x00, 0x00,
  0x02, 0x00, 0x00, 0x00, 0x1a, 0x00, 0x00, 0x00, 0x14, 0x00, 0x00, 0x00,
  0xce, 0xff, 0xff, 0xff, 0x14, 0x00, 0x00, 0x00, 0x00, 0x00, 0x00, 0x15,
  0x10, 0x00, 0x00, 0x00, 0x14, 0x00, 0x00, 0x00, 0x02, 0x00, 0x00, 0x00,
  0xb4, 0xcc, 0xff, 0xff, 0x01, 0x00, 0x00, 0x00, 0x1a, 0x00, 0x00, 0x00,
  0x02, 0x00, 0x00, 0x00, 0x19, 0x00, 0x00, 0x00, 0x15, 0x00, 0x00, 0x00,
  0x00, 0x00, 0x0e, 0x00, 0x18, 0x00, 0x14, 0x00, 0x10, 0x00, 0x0c, 0x00,
  0x0b, 0x00, 0x04, 0x00, 0x0e, 0x00, 0x00, 0x00, 0x20, 0x00, 0x00, 0x00,
  0x00, 0x00, 0x00, 0x01, 0x28, 0x00, 0x00, 0x00, 0x2c, 0x00, 0x00, 0x00,
  0x01, 0x00, 0x00, 0x00, 0x0c, 0x00, 0x10, 0x00, 0x00, 0x00, 0x0c, 0x00,
  0x08, 0x00, 0x07, 0x00, 0x0c, 0x00, 0x00, 0x00, 0x00, 0x00, 0x00, 0x01,
  0x02, 0x00, 0x00, 0x00, 0x02, 0x00, 0x00, 0x00, 0x01, 0x00, 0x00, 0x00,
  0x19, 0x00, 0x00, 0x00, 0x03, 0x00, 0x00, 0x00, 0x18, 0x00, 0x00, 0x00,
  0x17, 0x00, 0x00, 0x00, 0x16, 0x00, 0x00, 0x00, 0x00, 0x00, 0x0a, 0x00,
  0x0c, 0x00, 0x00, 0x00, 0x08, 0x00, 0x04, 0x00, 0x0a, 0x00, 0x00, 0x00,
  0x08, 0x00, 0x00, 0x00, 0x0c, 0x00, 0x00, 0x00, 0x01, 0x00, 0x00, 0x00,
  0x18, 0x00, 0x00, 0x00, 0x01, 0x00, 0x00, 0x00, 0x00, 0x00, 0x00, 0x00,
  0x01, 0x00, 0x00, 0x00, 0x2a, 0x00, 0x00, 0x00, 0x01, 0x00, 0x00, 0x00,
  0x00, 0x00, 0x00, 0x00, 0x2b, 0x00, 0x00, 0x00, 0x08, 0x33, 0x00, 0x00,
  0x7c, 0x32, 0x00, 0x00, 0xfc, 0x31, 0x00, 0x00, 0x88, 0x31, 0x00, 0x00,
  0x8c, 0x2f, 0x00, 0x00, 0xa8, 0x2d, 0x00, 0x00, 0x2c, 0x2a, 0x00, 0x00,
  0xc8, 0x26, 0x00, 0x00, 0x44, 0x26, 0x00, 0x00, 0xc0, 0x25, 0x00, 0x00,
  0xfc, 0x21, 0x00, 0x00, 0x88, 0x1e, 0x00, 0x00, 0x1c, 0x1c, 0x00, 0x00,
  0x08, 0x1a, 0x00, 0x00, 0x6c, 0x19, 0x00, 0x00, 0xe8, 0x18, 0x00, 0x00,
  0xa4, 0x16, 0x00, 0x00, 0xb0, 0x14, 0x00, 0x00, 0x0c, 0x13, 0x00, 0x00,
  0xcc, 0x11, 0x00, 0x00, 0x4c, 0x11, 0x00, 0x00, 0xc8, 0x10, 0x00, 0x00,
  0x4c, 0x0f, 0x00, 0x00, 0xc0, 0x0d, 0x00, 0x00, 0x3c, 0x0d, 0x00, 0x00,
  0x50, 0x0c, 0x00, 0x00, 0xac, 0x0b, 0x00, 0x00, 0x08, 0x0b, 0x00, 0x00,
  0xf4, 0x09, 0x00, 0x00, 0x00, 0x09, 0x00, 0x00, 0x54, 0x08, 0x00, 0x00,
  0xa8, 0x07, 0x00, 0x00, 0x0c, 0x07, 0x00, 0x00, 0xf0, 0x05, 0x00, 0x00,
  0xfc, 0x04, 0x00, 0x00, 0x50, 0x04, 0x00, 0x00, 0xa4, 0x03, 0x00, 0x00,
  0x10, 0x03, 0x00, 0x00, 0x5c, 0x02, 0x00, 0x00, 0xa0, 0x01, 0x00, 0x00,
  0x04, 0x01, 0x00, 0x00, 0x80, 0x00, 0x00, 0x00, 0x04, 0x00, 0x00, 0x00,
  0xba, 0xcd, 0xff, 0xff, 0x00, 0x00, 0x00, 0x01, 0x18, 0x00, 0x00, 0x00,
  0x20, 0x00, 0x00, 0x00, 0x3c, 0x00, 0x00, 0x00, 0x2b, 0x00, 0x00, 0x00,
  0x00, 0x00, 0x00, 0x03, 0x50, 0x00, 0x00, 0x00, 0x02, 0x00, 0x00, 0x00,
  0xff, 0xff, 0xff, 0xff, 0x01, 0x00, 0x00, 0x00, 0x9c, 0xcd, 0xff, 0xff,
  0x08, 0x00, 0x00, 0x00, 0x10, 0x00, 0x00, 0x00, 0x01, 0x00, 0x00, 0x00,
  0x00, 0x00, 0x00, 0x00, 0x00, 0x00, 0x00, 0x00, 0x01, 0x00, 0x00, 0x00,
  0x00, 0x00, 0x80, 0x3b, 0x1b, 0x00, 0x00, 0x00, 0x53, 0x74, 0x61, 0x74,
  0x65, 0x66, 0x75, 0x6c, 0x50, 0x61, 0x72, 0x74, 0x69, 0x74, 0x69, 0x6f,
  0x6e, 0x65, 0x64, 0x43, 0x61, 0x6c, 0x6c, 0x5f, 0x31, 0x3a, 0x30, 0x00,
  0x02, 0x00, 0x00, 0x00, 0x01, 0x00, 0x00, 0x00, 0x01, 0x00, 0x00, 0x00,
  0x32, 0xce, 0xff, 0xff, 0x00, 0x00, 0x00, 0x01, 0x18, 0x00, 0x00, 0x00,
  0x20, 0x00, 0x00, 0x00, 0x40, 0x00, 0x00, 0x00, 0x2a, 0x00, 0x00, 0x00,
  0x00, 0x00, 0x00, 0x09, 0x58, 0x00, 0x00, 0x00, 0x02, 0x00, 0x00, 0x00,
  0xff, 0xff, 0xff, 0xff, 0x01, 0x00, 0x00, 0x00, 0x14, 0xce, 0xff, 0xff,
  0x08, 0x00, 0x00, 0x00, 0x14, 0x00, 0x00, 0x00, 0x01, 0x00, 0x00, 0x00,
  0x80, 0xff, 0xff, 0xff, 0xff, 0xff, 0xff, 0xff, 0x00, 0x00, 0x00, 0x00,
  0x01, 0x00, 0x00, 0x00, 0x00, 0x00, 0x80, 0x3b, 0x1c, 0x00, 0x00, 0x00,
  0x53, 0x74, 0x61, 0x74, 0x65, 0x66, 0x75, 0x6c, 0x50, 0x61, 0x72, 0x74,
  0x69, 0x74, 0x69, 0x6f, 0x6e, 0x65, 0x64, 0x43, 0x61, 0x6c, 0x6c, 0x5f,
  0x31, 0x3a, 0x30, 0x31, 0x00, 0x00, 0x00, 0x00, 0x02, 0x00, 0x00, 0x00,
  0x01, 0x00, 0x00, 0x00, 0x01, 0x00, 0x00, 0x00, 0xb2, 0xce, 0xff, 0xff,
  0x00, 0x00, 0x00, 0x01, 0x18, 0x00, 0x00, 0x00, 0x20, 0x00, 0x00, 0x00,
  0x3c, 0x00, 0x00, 0x00, 0x29, 0x00, 0x00, 0x00, 0x00, 0x00, 0x00, 0x09,
  0x70, 0x00, 0x00, 0x00, 0x02, 0x00, 0x00, 0x00, 0xff, 0xff, 0xff, 0xff,
  0x01, 0x00, 0x00, 0x00, 0x94, 0xce, 0xff, 0xff, 0x08, 0x00, 0x00, 0x00,
  0x10, 0x00, 0x00, 0x00, 0x01, 0x00, 0x00, 0x00, 0x30, 0x00, 0x00, 0x00,
  0x00, 0x00, 0x00, 0x00, 0x01, 0x00, 0x00, 0x00, 0xf9, 0xde, 0x97, 0x3d,
  0x38, 0x00, 0x00, 0x00, 0x66, 0x75, 0x6e, 0x63, 0x74, 0x69, 0x6f, 0x6e,
  0x61, 0x6c, 0x5f, 0x31, 0x2f, 0x64, 0x65, 0x6e, 0x73, 0x65, 0x5f, 0x32,
  0x5f, 0x31, 0x2f, 0x4d, 0x61, 0x74, 0x4d, 0x75, 0x6c, 0x3b, 0x66, 0x75,
  0x6e, 0x63, 0x74, 0x69, 0x6f, 0x6e, 0x61, 0x6c, 0x5f, 0x31, 0x2f, 0x64,
  0x65, 0x6e, 0x73, 0x65, 0x5f, 0x32, 0x5f, 0x31, 0x2f, 0x41, 0x64, 0x64,
  0x00, 0x00, 0x00, 0x00, 0x02, 0x00, 0x00, 0x00, 0x01, 0x00, 0x00, 0x00,
  0x01, 0x00, 0x00, 0x00, 0x4a, 0xcf, 0xff, 0xff, 0x00, 0x00, 0x00, 0x01,
  0x18, 0x00, 0x00, 0x00, 0x20, 0x00, 0x00, 0x00, 0x3c, 0x00, 0x00, 0x00,
  0x28, 0x00, 0x00, 0x00, 0x00, 0x00, 0x00, 0x09, 0x90, 0x00, 0x00, 0x00,
  0x02, 0x00, 0x00, 0x00, 0xff, 0xff, 0xff, 0xff, 0x20, 0x00, 0x00, 0x00,
  0x2c, 0xcf, 0xff, 0xff, 0x08, 0x00, 0x00, 0x00, 0x10, 0x00, 0x00, 0x00,
  0x01, 0x00, 0x00, 0x00, 0x80, 0xff, 0xff, 0xff, 0xff, 0xff, 0xff, 0xff,
  0x01, 0x00, 0x00, 0x00, 0x5e, 0xe4, 0x6a, 0x3c, 0x58, 0x00, 0x00, 0x00,
  0x66, 0x75, 0x6e, 0x63, 0x74, 0x69, 0x6f, 0x6e, 0x61, 0x6c, 0x5f, 0x31,
  0x2f, 0x64, 0x65, 0x6e, 0x73, 0x65, 0x5f, 0x31, 0x5f, 0x32, 0x2f, 0x4d,
  0x61, 0x74, 0x4d, 0x75, 0x6c, 0x3b, 0x66, 0x75, 0x6e, 0x63, 0x74, 0x69,
  0x6f, 0x6e, 0x61, 0x6c, 0x5f, 0x31, 0x2f, 0x64, 0x65, 0x6e, 0x73, 0x65,
  0x5f, 0x31, 0x5f, 0x32, 0x2f, 0x52, 0x65, 0x6c, 0x75, 0x3b, 0x66, 0x75,
  0x6e, 0x63, 0x74, 0x69, 0x6f, 0x6e, 0x61, 0x6c, 0x5f, 0x31, 0x2f, 0x64,
  0x65, 0x6e, 0x73, 0x65, 0x5f, 0x31, 0x5f, 0x32, 0x2f, 0x42, 0x69, 0x61,
  0x73, 0x41, 0x64, 0x64, 0x00, 0x00, 0x00, 0x00, 0x02, 0x00, 0x00, 0x00,
  0x01, 0x00, 0x00, 0x00, 0x20, 0x00, 0x00, 0x00, 0x02, 0xd0, 0xff, 0xff,
  0x00, 0x00, 0x00, 0x01, 0x18, 0x00, 0x00, 0x00, 0x20, 0x00, 0x00, 0x00,
  0x3c, 0x00, 0x00, 0x00, 0x27, 0x00, 0x00, 0x00, 0x00, 0x00, 0x00, 0x09,
  0x88, 0x00, 0x00, 0x00, 0x02, 0x00, 0x00, 0x00, 0xff, 0xff, 0xff, 0xff,
  0x40, 0x00, 0x00, 0x00, 0xe4, 0xcf, 0xff, 0xff, 0x08, 0x00, 0x00, 0x00,
  0x10, 0x00, 0x00, 0x00, 0x01, 0x00, 0x00, 0x00, 0x80, 0xff, 0xff, 0xff,
  0xff, 0xff, 0xff, 0xff, 0x01, 0x00, 0x00, 0x00, 0x0a, 0xd4, 0xc5, 0x3b,
  0x52, 0x00, 0x00, 0x00, 0x66, 0x75, 0x6e, 0x63, 0x74, 0x69, 0x6f, 0x6e,
  0x61, 0x6c, 0x5f, 0x31, 0x2f, 0x64, 0x65, 0x6e, 0x73, 0x65, 0x5f, 0x31,
  0x2f, 0x4d, 0x61, 0x74, 0x4d, 0x75, 0x6c, 0x3b, 0x66, 0x75, 0x6e, 0x63,
  0x74, 0x69, 0x6f, 0x6e, 0x61, 0x6c, 0x5f, 0x31, 0x2f, 0x64, 0x65, 0x6e,
  0x73, 0x65, 0x5f, 0x31, 0x2f, 0x52, 0x65, 0x6c, 0x75, 0x3b, 0x66, 0x75,
  0x6e, 0x63, 0x74, 0x69, 0x6f, 0x6e, 0x61, 0x6c, 0x5f, 0x31, 0x2f, 0x64,
  0x65, 0x6e, 0x73, 0x65, 0x5f, 0x31, 0x2f, 0x42, 0x69, 0x61, 0x73, 0x41,
  0x64, 0x64, 0x00, 0x00, 0x02, 0x00, 0x00, 0x00, 0x01, 0x00, 0x00, 0x00,
  0x40, 0x00, 0x00, 0x00, 0xb2, 0xd0, 0xff, 0xff, 0x00, 0x00, 0x00, 0x01,
  0x18, 0x00, 0x00, 0x00, 0x20, 0x00, 0x00, 0x00, 0x40, 0x00, 0x00, 0x00,
  0x26, 0x00, 0x00, 0x00, 0x00, 0x00, 0x00, 0x09, 0x68, 0x00, 0x00, 0x00,
  0x02, 0x00, 0x00, 0x00, 0xff, 0xff, 0xff, 0xff, 0x40, 0x00, 0x00, 0x00,
  0x94, 0xd0, 0xff, 0xff, 0x08, 0x00, 0x00, 0x00, 0x14, 0x00, 0x00, 0x00,
  0x01, 0x00, 0x00, 0x00, 0xef, 0xff, 0xff, 0xff, 0xff, 0xff, 0xff, 0xff,
  0x00, 0x00, 0x00, 0x00, 0x01, 0x00, 0x00, 0x00, 0xfe, 0x0f, 0xf1, 0x3b,
  0x2c, 0x00, 0x00, 0x00, 0x66, 0x75, 0x6e, 0x63, 0x74, 0x69, 0x6f, 0x6e,
  0x61, 0x6c, 0x5f, 0x31, 0x2f, 0x67, 0x6c, 0x6f, 0x62, 0x61, 0x6c, 0x5f,
  0x61, 0x76, 0x65, 0x72, 0x61, 0x67, 0x65, 0x5f, 0x70, 0x6f, 0x6f, 0x6c,
  0x69, 0x6e, 0x67, 0x32, 0x64, 0x5f, 0x31, 0x2f, 0x4d, 0x65, 0x61, 0x6e,
  0x00, 0x00, 0x00, 0x00, 0x02, 0x00, 0x00, 0x00, 0x01, 0x00, 0x00, 0x00,
  0x40, 0x00, 0x00, 0x00, 0x42, 0xd1, 0xff, 0xff, 0x00, 0x00, 0x00, 0x01,
  0x18, 0x00, 0x00, 0x00, 0x28, 0x00, 0x00, 0x00, 0x48, 0x00, 0x00, 0x00,
  0x25, 0x00, 0x00, 0x00, 0x00, 0x00, 0x00, 0x09, 0x78, 0x00, 0x00, 0x00,
  0x04, 0x00, 0x00, 0x00, 0xff, 0xff, 0xff, 0xff, 0x18, 0x00, 0x00, 0x00,
  0x18, 0x00, 0x00, 0x00, 0x40, 0x00, 0x00, 0x00, 0x2c, 0xd1, 0xff, 0xff,
  0x08, 0x00, 0x00, 0x00, 0x14, 0x00, 0x00, 0x00, 0x01, 0x00, 0x00, 0x00,
  0xbb, 0xff, 0xff, 0xff, 0xff, 0xff, 0xff, 0xff, 0x00, 0x00, 0x00, 0x00,
  0x01, 0x00, 0x00, 0x00, 0x68, 0xc4, 0x43, 0x3d, 0x34, 0x00, 0x00, 0x00,
  0x66, 0x75, 0x6e, 0x63, 0x74, 0x69, 0x6f, 0x6e, 0x61, 0x6c, 0x5f, 0x31,
  0x2f, 0x62, 0x61, 0x74, 0x63, 0x68, 0x5f, 0x6e, 0x6f, 0x72, 0x6d, 0x61,
  0x6c, 0x69, 0x7a, 0x61, 0x74, 0x69, 0x6f, 0x6e, 0x5f, 0x32, 0x5f, 0x31,
  0x2f, 0x62, 0x61, 0x74, 0x63, 0x68, 0x6e, 0x6f, 0x72, 0x6d, 0x2f, 0x61,
  0x64, 0x64, 0x5f, 0x31, 0x00, 0x00, 0x00, 0x00, 0x04, 0x00, 0x00, 0x00,
  0x01, 0x00, 0x00, 0x00, 0x18, 0x00, 0x00, 0x00, 0x18, 0x00, 0x00, 0x00,
  0x40, 0x00, 0x00, 0x00, 0xea, 0xd1, 0xff, 0xff, 0x00, 0x00, 0x00, 0x01,
  0x18, 0x00, 0x00, 0x00, 0x28, 0x00, 0x00, 0x00, 0x48, 0x00, 0x00, 0x00,
  0x24, 0x00, 0x00, 0x00, 0x00, 0x00, 0x00, 0x09, 0x78, 0x00, 0x00, 0x00,
  0x04, 0x00, 0x00, 0x00, 0xff, 0xff, 0xff, 0xff, 0x18, 0x00, 0x00, 0x00,
  0x18, 0x00, 0x00, 0x00, 0x40, 0x00, 0x00, 0x00, 0xd4, 0xd1, 0xff, 0xff,
  0x08, 0x00, 0x00, 0x00, 0x14, 0x00, 0x00, 0x00, 0x01, 0x00, 0x00, 0x00,
  0xb9, 0xff, 0xff, 0xff, 0xff, 0xff, 0xff, 0xff, 0x00, 0x00, 0x00, 0x00,
  0x01, 0x00, 0x00, 0x00, 0x91, 0x78, 0x47, 0x3d, 0x34, 0x00, 0x00, 0x00,
  0x66, 0x75, 0x6e, 0x63, 0x74, 0x69, 0x6f, 0x6e, 0x61, 0x6c, 0x5f, 0x31,
  0x2f, 0x62, 0x61, 0x74, 0x63, 0x68, 0x5f, 0x6e, 0x6f, 0x72, 0x6d, 0x61,
  0x6c, 0x69, 0x7a, 0x61, 0x74, 0x69, 0x6f, 0x6e, 0x5f, 0x32, 0x5f, 0x31,
  0x2f, 0x62, 0x61, 0x74, 0x63, 0x68, 0x6e, 0x6f, 0x72, 0x6d, 0x2f, 0x6d,
  0x75, 0x6c, 0x5f, 0x31, 0x00, 0x00, 0x00, 0x00, 0x04, 0x00, 0x00, 0x00,
  0x01, 0x00, 0x00, 0x00, 0x18, 0x00, 0x00, 0x00, 0x18, 0x00, 0x00, 0x00,
  0x40, 0x00, 0x00, 0x00, 0x92, 0xd2, 0xff, 0xff, 0x00, 0x00, 0x00, 0x01,
  0x18, 0x00, 0x00, 0x00, 0x28, 0x00, 0x00, 0x00, 0x44, 0x00, 0x00, 0x00,
  0x23, 0x00, 0x00, 0x00, 0x00, 0x00, 0x00, 0x09, 0xc0, 0x00, 0x00, 0x00,
  0x04, 0x00, 0x00, 0x00, 0xff, 0xff, 0xff, 0xff, 0x18, 0x00, 0x00, 0x00,
  0x18, 0x00, 0x00, 0x00, 0x40, 0x00, 0x00, 0x00, 0x7c, 0xd2, 0xff, 0xff,
  0x08, 0x00, 0x00, 0x00, 0x10, 0x00, 0x00, 0x00, 0x01, 0x00, 0x00, 0x00,
  0x80, 0xff, 0xff, 0xff, 0xff, 0xff, 0xff, 0xff, 0x01, 0x00, 0x00, 0x00,
  0xc7, 0x89, 0x1a, 0x3d, 0x81, 0x00, 0x00, 0x00, 0x66, 0x75, 0x6e, 0x63,
  0x74, 0x69, 0x6f, 0x6e, 0x61, 0x6c, 0x5f, 0x31, 0x2f, 0x63, 0x6f, 0x6e,
  0x76, 0x32, 0x64, 0x5f, 0x32, 0x5f, 0x31, 0x2f, 0x52, 0x65, 0x6c, 0x75,
  0x3b, 0x66, 0x75, 0x6e, 0x63, 0x74, 0x69, 0x6f, 0x6e, 0x61, 0x6c, 0x5f,
  0x31, 0x2f, 0x63, 0x6f, 0x6e, 0x76, 0x32, 0x64, 0x5f, 0x32, 0x5f, 0x31,
  0x2f, 0x42, 0x69, 0x61, 0x73, 0x41, 0x64, 0x64, 0x3b, 0x66, 0x75, 0x6e,
  0x63, 0x74, 0x69, 0x6f, 0x6e, 0x61, 0x6c, 0x5f, 0x31, 0x2f, 0x63, 0x6f,
  0x6e, 0x76, 0x32, 0x64, 0x5f, 0x32, 0x5f, 0x31, 0x2f, 0x63, 0x6f, 0x6e,
  0x76, 0x6f, 0x6c, 0x75, 0x74, 0x69, 0x6f, 0x6e, 0x3b, 0x66, 0x75, 0x6e,
  0x63, 0x74, 0x69, 0x6f, 0x6e, 0x61, 0x6c, 0x5f, 0x31, 0x2f, 0x63, 0x6f,
  0x6e, 0x76, 0x32, 0x64, 0x5f, 0x32, 0x5f, 0x31, 0x2f, 0x53, 0x71, 0x75,
  0x65, 0x65, 0x7a, 0x65, 0x31, 0x00, 0x00, 0x00, 0x04, 0x00, 0x00, 0x00,
  0x01, 0x00, 0x00, 0x00, 0x18, 0x00, 0x00, 0x00, 0x18, 0x00, 0x00, 0x00,
  0x40, 0x00, 0x00, 0x00, 0x82, 0xd3, 0xff, 0xff, 0x00, 0x00, 0x00, 0x01,
  0x18, 0x00, 0x00, 0x00, 0x28, 0x00, 0x00, 0x00, 0x48, 0x00, 0x00, 0x00,
  0x22, 0x00, 0x00, 0x00, 0x00, 0x00, 0x00, 0x09, 0xe8, 0x00, 0x00, 0x00,
  0x04, 0x00, 0x00, 0x00, 0xff, 0xff, 0xff, 0xff, 0x18, 0x00, 0x00, 0x00,
  0x18, 0x00, 0x00, 0x00, 0x20, 0x00, 0x00, 0x00, 0x6c, 0xd3, 0xff, 0xff,
  0x08, 0x00, 0x00, 0x00, 0x14, 0x00, 0x00, 0x00, 0x01, 0x00, 0x00, 0x00,
  0x80, 0xff, 0xff, 0xff, 0xff, 0xff, 0xff, 0xff, 0x00, 0x00, 0x00, 0x00,
  0x01, 0x00, 0x00, 0x00, 0x15, 0x5d, 0x16, 0x3b, 0xa7, 0x00, 0x00, 0x00,
  0x66, 0x75, 0x6e, 0x63, 0x74, 0x69, 0x6f, 0x6e, 0x61, 0x6c, 0x5f, 0x31,
  0x2f, 0x64, 0x65, 0x70, 0x74, 0x68, 0x77, 0x69, 0x73, 0x65, 0x5f, 0x63,
  0x6f, 0x6e, 0x76, 0x32, 0x64, 0x5f, 0x31, 0x5f, 0x32, 0x2f, 0x52, 0x65,
  0x6c, 0x75, 0x3b, 0x66, 0x75, 0x6e, 0x63, 0x74, 0x69, 0x6f, 0x6e, 0x61,
  0x6c, 0x5f, 0x31, 0x2f, 0x64, 0x65, 0x70, 0x74, 0x68, 0x77, 0x69, 0x73,
  0x65, 0x5f, 0x63, 0x6f, 0x6e, 0x76, 0x32, 0x64, 0x5f, 0x31, 0x5f, 0x32,
  0x2f, 0x42, 0x69, 0x61, 0x73, 0x41, 0x64, 0x64, 0x3b, 0x66, 0x75, 0x6e,
  0x63, 0x74, 0x69, 0x6f, 0x6e, 0x61, 0x6c, 0x5f, 0x31, 0x2f, 0x64, 0x65,
  0x70, 0x74, 0x68, 0x77, 0x69, 0x73, 0x65, 0x5f, 0x63, 0x6f, 0x6e, 0x76,
  0x32, 0x64, 0x5f, 0x31, 0x5f, 0x32, 0x2f, 0x64, 0x65, 0x70, 0x74, 0x68,
  0x77, 0x69, 0x73, 0x65, 0x3b, 0x66, 0x75, 0x6e, 0x63, 0x74, 0x69, 0x6f,
  0x6e, 0x61, 0x6c, 0x5f, 0x31, 0x2f, 0x64, 0x65, 0x70, 0x74, 0x68, 0x77,
  0x69, 0x73, 0x65, 0x5f, 0x63, 0x6f, 0x6e, 0x76, 0x32, 0x64, 0x5f, 0x31,
  0x5f, 0x32, 0x2f, 0x53, 0x71, 0x75, 0x65, 0x65, 0x7a, 0x65, 0x31, 0x00,
  0x04, 0x00, 0x00, 0x00, 0x01, 0x00, 0x00, 0x00, 0x18, 0x00, 0x00, 0x00,
  0x18, 0x00, 0x00, 0x00, 0x20, 0x00, 0x00, 0x00, 0x9a, 0xd4, 0xff, 0xff,
  0x00, 0x00, 0x00, 0x01, 0x18, 0x00, 0x00, 0x00, 0x28, 0x00, 0x00, 0x00,
  0x48, 0x00, 0x00, 0x00, 0x21, 0x00, 0x00, 0x00, 0x00, 0x00, 0x00, 0x09,
  0x68, 0x00, 0x00, 0x00, 0x04, 0x00, 0x00, 0x00, 0xff, 0xff, 0xff, 0xff,
  0x18, 0x00, 0x00, 0x00, 0x18, 0x00, 0x00, 0x00, 0x20, 0x00, 0x00, 0x00,
  0x84, 0xd4, 0xff, 0xff, 0x08, 0x00, 0x00, 0x00, 0x14, 0x00, 0x00, 0x00,
  0x01, 0x00, 0x00, 0x00, 0xee, 0xff, 0xff, 0xff, 0xff, 0xff, 0xff, 0xff,
  0x00, 0x00, 0x00, 0x00, 0x01, 0x00, 0x00, 0x00, 0xf4, 0x92, 0x29, 0x3c,
  0x26, 0x00, 0x00, 0x00, 0x66, 0x75, 0x6e, 0x63, 0x74, 0x69, 0x6f, 0x6e,
  0x61, 0x6c, 0x5f, 0x31, 0x2f, 0x6d, 0x61, 0x78, 0x5f, 0x70, 0x6f, 0x6f,
  0x6c, 0x69, 0x6e, 0x67, 0x32, 0x64, 0x5f, 0x31, 0x2f, 0x4d, 0x61, 0x78,
  0x50, 0x6f, 0x6f, 0x6c, 0x32, 0x64, 0x00, 0x00, 0x04, 0x00, 0x00, 0x00,
  0x01, 0x00, 0x00, 0x00, 0x18, 0x00, 0x00, 0x00, 0x18, 0x00, 0x00, 0x00,
  0x20, 0x00, 0x00, 0x00, 0x32, 0xd5, 0xff, 0xff, 0x00, 0x00, 0x00, 0x01,
  0x18, 0x00, 0x00, 0x00, 0x28, 0x00, 0x00, 0x00, 0x48, 0x00, 0x00, 0x00,
  0x20, 0x00, 0x00, 0x00, 0x00, 0x00, 0x00, 0x09, 0x78, 0x00, 0x00, 0x00,
  0x04, 0x00, 0x00, 0x00, 0xff, 0xff, 0xff, 0xff, 0x30, 0x00, 0x00, 0x00,
  0x30, 0x00, 0x00, 0x00, 0x20, 0x00, 0x00, 0x00, 0x1c, 0xd5, 0xff, 0xff,
  0x08, 0x00, 0x00, 0x00, 0x14, 0x00, 0x00, 0x00, 0x01, 0x00, 0x00, 0x00,
  0xee, 0xff, 0xff, 0xff, 0xff, 0xff, 0xff, 0xff, 0x00, 0x00, 0x00, 0x00,
  0x01, 0x00, 0x00, 0x00, 0xf4, 0x92, 0x29, 0x3c, 0x34, 0x00, 0x00, 0x00,
  0x66, 0x75, 0x6e, 0x63, 0x74, 0x69, 0x6f, 0x6e, 0x61, 0x6c, 0x5f, 0x31,
  0x2f, 0x62, 0x61, 0x74, 0x63, 0x68, 0x5f, 0x6e, 0x6f, 0x72, 0x6d, 0x61,
  0x6c, 0x69, 0x7a, 0x61, 0x74, 0x69, 0x6f, 0x6e, 0x5f, 0x31, 0x5f, 0x32,
  0x2f, 0x62, 0x61, 0x74, 0x63, 0x68, 0x6e, 0x6f, 0x72, 0x6d, 0x2f, 0x61,
  0x64, 0x64, 0x5f, 0x31, 0x00, 0x00, 0x00, 0x00, 0x04, 0x00, 0x00, 0x00,
  0x01, 0x00, 0x00, 0x00, 0x30, 0x00, 0x00, 0x00, 0x30, 0x00, 0x00, 0x00,
  0x20, 0x00, 0x00, 0x00, 0xda, 0xd5, 0xff, 0xff, 0x00, 0x00, 0x00, 0x01,
  0x18, 0x00, 0x00, 0x00, 0x28, 0x00, 0x00, 0x00, 0x48, 0x00, 0x00, 0x00,
  0x1f, 0x00, 0x00, 0x00, 0x00, 0x00, 0x00, 0x09, 0x78, 0x00, 0x00, 0x00,
  0x04, 0x00, 0x00, 0x00, 0xff, 0xff, 0xff, 0xff, 0x30, 0x00, 0x00, 0x00,
  0x30, 0x00, 0x00, 0x00, 0x20, 0x00, 0x00, 0x00, 0xc4, 0xd5, 0xff, 0xff,
  0x08, 0x00, 0x00, 0x00, 0x14, 0x00, 0x00, 0x00, 0x01, 0x00, 0x00, 0x00,
  0xc2, 0xff, 0xff, 0xff, 0xff, 0xff, 0xff, 0xff, 0x00, 0x00, 0x00, 0x00,
  0x01, 0x00, 0x00, 0x00, 0x21, 0xf9, 0x8e, 0x3c, 0x34, 0x00, 0x00, 0x00,
  0x66, 0x75, 0x6e, 0x63, 0x74, 0x69, 0x6f, 0x6e, 0x61, 0x6c, 0x5f, 0x31,
  0x2f, 0x62, 0x61, 0x74, 0x63, 0x68, 0x5f, 0x6e, 0x6f, 0x72, 0x6d, 0x61,
  0x6c, 0x69, 0x7a, 0x61, 0x74, 0x69, 0x6f, 0x6e, 0x5f, 0x31, 0x5f, 0x32,
  0x2f, 0x62, 0x61, 0x74, 0x63, 0x68, 0x6e, 0x6f, 0x72, 0x6d, 0x2f, 0x6d,
  0x75, 0x6c, 0x5f, 0x31, 0x00, 0x00, 0x00, 0x00, 0x04, 0x00, 0x00, 0x00,
  0x01, 0x00, 0x00, 0x00, 0x30, 0x00, 0x00, 0x00, 0x30, 0x00, 0x00, 0x00,
  0x20, 0x00, 0x00, 0x00, 0x82, 0xd6, 0xff, 0xff, 0x00, 0x00, 0x00, 0x01,
  0x18, 0x00, 0x00, 0x00, 0x28, 0x00, 0x00, 0x00, 0x44, 0x00, 0x00, 0x00,
  0x1e, 0x00, 0x00, 0x00, 0x00, 0x00, 0x00, 0x09, 0xc0, 0x00, 0x00, 0x00,
  0x04, 0x00, 0x00, 0x00, 0xff, 0xff, 0xff, 0xff, 0x30, 0x00, 0x00, 0x00,
  0x30, 0x00, 0x00, 0x00, 0x20, 0x00, 0x00, 0x00, 0x6c, 0xd6, 0xff, 0xff,
  0x08, 0x00, 0x00, 0x00, 0x10, 0x00, 0x00, 0x00, 0x01, 0x00, 0x00, 0x00,
  0x80, 0xff, 0xff, 0xff, 0xff, 0xff, 0xff, 0xff, 0x01, 0x00, 0x00, 0x00,
  0x48, 0x7b, 0x54, 0x3c, 0x81, 0x00, 0x00, 0x00, 0x66, 0x75, 0x6e, 0x63,
  0x74, 0x69, 0x6f, 0x6e, 0x61, 0x6c, 0x5f, 0x31, 0x2f, 0x63, 0x6f, 0x6e,
  0x76, 0x32, 0x64, 0x5f, 0x31, 0x5f, 0x32, 0x2f, 0x52, 0x65, 0x6c, 0x75,
  0x3b, 0x66, 0x75, 0x6e, 0x63, 0x74, 0x69, 0x6f, 0x6e, 0x61, 0x6c, 0x5f,
  0x31, 0x2f, 0x63, 0x6f, 0x6e, 0x76, 0x32, 0x64, 0x5f, 0x31, 0x5f, 0x32,
  0x2f, 0x42, 0x69, 0x61, 0x73, 0x41, 0x64, 0x64, 0x3b, 0x66, 0x75, 0x6e,
  0x63, 0x74, 0x69, 0x6f, 0x6e, 0x61, 0x6c, 0x5f, 0x31, 0x2f, 0x63, 0x6f,
  0x6e, 0x76, 0x32, 0x64, 0x5f, 0x31, 0x5f, 0x32, 0x2f, 0x63, 0x6f, 0x6e,
  0x76, 0x6f, 0x6c, 0x75, 0x74, 0x69, 0x6f, 0x6e, 0x3b, 0x66, 0x75, 0x6e,
  0x63, 0x74, 0x69, 0x6f, 0x6e, 0x61, 0x6c, 0x5f, 0x31, 0x2f, 0x63, 0x6f,
  0x6e, 0x76, 0x32, 0x64, 0x5f, 0x31, 0x5f, 0x32, 0x2f, 0x53, 0x71, 0x75,
  0x65, 0x65, 0x7a, 0x65, 0x31, 0x00, 0x00, 0x00, 0x04, 0x00, 0x00, 0x00,
  0x01, 0x00, 0x00, 0x00, 0x30, 0x00, 0x00, 0x00, 0x30, 0x00, 0x00, 0x00,
  0x20, 0x00, 0x00, 0x00, 0x72, 0xd7, 0xff, 0xff, 0x00, 0x00, 0x00, 0x01,
  0x18, 0x00, 0x00, 0x00, 0x28, 0x00, 0x00, 0x00, 0x48, 0x00, 0x00, 0x00,
  0x1d, 0x00, 0x00, 0x00, 0x00, 0x00, 0x00, 0x09, 0xe0, 0x00, 0x00, 0x00,
  0x04, 0x00, 0x00, 0x00, 0xff, 0xff, 0xff, 0xff, 0x30, 0x00, 0x00, 0x00,
  0x30, 0x00, 0x00, 0x00, 0x10, 0x00, 0x00, 0x00, 0x5c, 0xd7, 0xff, 0xff,
  0x08, 0x00, 0x00, 0x00, 0x14, 0x00, 0x00, 0x00, 0x01, 0x00, 0x00, 0x00,
  0x80, 0xff, 0xff, 0xff, 0xff, 0xff, 0xff, 0xff, 0x00, 0x00, 0x00, 0x00,
  0x01, 0x00, 0x00, 0x00, 0x22, 0x0b, 0x19, 0x3a, 0x9f, 0x00, 0x00, 0x00,
  0x66, 0x75, 0x6e, 0x63, 0x74, 0x69, 0x6f, 0x6e, 0x61, 0x6c, 0x5f, 0x31,
  0x2f, 0x64, 0x65, 0x70, 0x74, 0x68, 0x77, 0x69, 0x73, 0x65, 0x5f, 0x63,
  0x6f, 0x6e, 0x76, 0x32, 0x64, 0x5f, 0x31, 0x2f, 0x52, 0x65, 0x6c, 0x75,
  0x3b, 0x66, 0x75, 0x6e, 0x63, 0x74, 0x69, 0x6f, 0x6e, 0x61, 0x6c, 0x5f,
  0x31, 0x2f, 0x64, 0x65, 0x70, 0x74, 0x68, 0x77, 0x69, 0x73, 0x65, 0x5f,
  0x63, 0x6f, 0x6e, 0x76, 0x32, 0x64, 0x5f, 0x31, 0x2f, 0x42, 0x69, 0x61,
  0x73, 0x41, 0x64, 0x64, 0x3b, 0x66, 0x75, 0x6e, 0x63, 0x74, 0x69, 0x6f,
  0x6e, 0x61, 0x6c, 0x5f, 0x31, 0x2f, 0x64, 0x65, 0x70, 0x74, 0x68, 0x77,
  0x69, 0x73, 0x65, 0x5f, 0x63, 0x6f, 0x6e, 0x76, 0x32, 0x64, 0x5f, 0x31,
  0x2f, 0x64, 0x65, 0x70, 0x74, 0x68, 0x77, 0x69, 0x73, 0x65, 0x3b, 0x66,
  0x75, 0x6e, 0x63, 0x74, 0x69, 0x6f, 0x6e, 0x61, 0x6c, 0x5f, 0x31, 0x2f,
  0x64, 0x65, 0x70, 0x74, 0x68, 0x77, 0x69, 0x73, 0x65, 0x5f, 0x63, 0x6f,
  0x6e, 0x76, 0x32, 0x64, 0x5f, 0x31, 0x2f, 0x53, 0x71, 0x75, 0x65, 0x65,
  0x7a, 0x65, 0x31, 0x00, 0x04, 0x00, 0x00, 0x00, 0x01, 0x00, 0x00, 0x00,
  0x30, 0x00, 0x00, 0x00, 0x30, 0x00, 0x00, 0x00, 0x10, 0x00, 0x00, 0x00,
  0x82, 0xd8, 0xff, 0xff, 0x00, 0x00, 0x00, 0x01, 0x18, 0x00, 0x00, 0x00,
  0x28, 0x00, 0x00, 0x00, 0x44, 0x00, 0x00, 0x00, 0x1c, 0x00, 0x00, 0x00,
  0x00, 0x00, 0x00, 0x09, 0x70, 0x00, 0x00, 0x00, 0x04, 0x00, 0x00, 0x00,
  0xff, 0xff, 0xff, 0xff, 0x30, 0x00, 0x00, 0x00, 0x30, 0x00, 0x00, 0x00,
  0x10, 0x00, 0x00, 0x00, 0x6c, 0xd8, 0xff, 0xff, 0x08, 0x00, 0x00, 0x00,
  0x10, 0x00, 0x00, 0x00, 0x01, 0x00, 0x00, 0x00, 0xff, 0xff, 0xff, 0xff,
  0xff, 0xff, 0xff, 0xff, 0x01, 0x00, 0x00, 0x00, 0x66, 0x44, 0x9a, 0x3a,
  0x32, 0x00, 0x00, 0x00, 0x66, 0x75, 0x6e, 0x63, 0x74, 0x69, 0x6f, 0x6e,
  0x61, 0x6c, 0x5f, 0x31, 0x2f, 0x62, 0x61, 0x74, 0x63, 0x68, 0x5f, 0x6e,
  0x6f, 0x72, 0x6d, 0x61, 0x6c, 0x69, 0x7a, 0x61, 0x74, 0x69, 0x6f, 0x6e,
  0x5f, 0x31, 0x2f, 0x62, 0x61, 0x74, 0x63, 0x68, 0x6e, 0x6f, 0x72, 0x6d,
  0x2f, 0x61, 0x64, 0x64, 0x5f, 0x31, 0x00, 0x00, 0x04, 0x00, 0x00, 0x00,
  0x01, 0x00, 0x00, 0x00, 0x30, 0x00, 0x00, 0x00, 0x30, 0x00, 0x00, 0x00,
